<unk>	0
<s>	0
</s>	0
но	-0
ст	-1
на	-2
ро	-3
не	-4
ра	-5
ку	-6
ка	-7
ко	-8
по	-9
да	-10
то	-11
пл	-12
ет	-13
ва	-14
ел	-15
ищ	-16
ищу	-17
▁ищу	-18
мо	-19
до	-20
ни	-21
плю	-22
▁ку	-23
▁куплю	-24
во	-25
ре	-26
го	-27
ый	-28
ру	-29
ит	-30
ло	-31
ен	-32
ли	-33
ла	-34
за	-35
ер	-36
ес	-37
хо	-38
▁Н	-39
ди	-40
ть	-41
ма	-42
ми	-43
▁В	-44
ль	-45
ти	-46
ки	-47
ся	-48
▁с	-49
ри	-50
нов	-51
ста	-52
от	-53
▁И	-54
дам	-55
про	-56
бу	-57
ду	-58
еб	-59
ну	-60
▁П	-61
сто	-62
ви	-63
га	-64
новый	-65
вс	-66
та	-67
ве	-68
ем	-69
со	-70
шь	-71
па	-72
си	-73
▁Я	-74
▁сдам	-75
ля	-76
▁С	-77
ле	-78
же	-79
ны	-80
ут	-81
ча	-82
ква	-83
▁новый	-84
бы	-85
де	-86
зо	-87
ком	-88
▁Т	-89
ный	-90
рти	-91
тел	-92
▁Но	-93
ба	-94
▁М	-95
чно	-96
бе	-97
пи	-98
кварти	-99
жа	-100
са	-101
ту	-102
ши	-103
бо	-104
пе	-105
мне	-106
ме	-107
ры	-108
чу	-109
ят	-110
вы	-111
сь	-112
вая	-113
ска	-114
▁По	-115
▁А	-116
бот	-117
теле	-118
жи	-119
лю	-120
сту	-121
вка	-122
для	-123
работ	-124
он	-125
ты	-126
чи	-127
даю	-128
как	-129
▁но	-130
че	-131
зор	-132
ник	-133
при	-134
что	-135
доро	-136
квартиру	-137
..	-138
ня	-139
ебя	-140
ель	-141
ной	-142
сть	-143
▁На	-144
рочно	-145
ос	-146
те	-147
ше	-148
▁О	-149
дом	-150
ела	-151
еня	-152
ети	-153
ется	-154
▁новая	-155
ву	-156
гу	-157
ды	-158
се	-159
ют	-160
ить	-161
кой	-162
мон	-163
под	-164
рапо	-165
on	-166
ря	-167
це	-168
▁К	-169
все	-170
ень	-171
ков	-172
доста	-173
ремон	-174
би	-175
жу	-176
вет	-177
рас	-178
сти	-179
фон	-180
лько	-181
тебя	-182
доставка	-183
об	-184
су	-185
тр	-186
ще	-187
▁Х	-188
дет	-189
ело	-190
том	-191
ули	-192
утбу	-193
визор	-194
телевизор	-195
ги	-196
зы	-197
нь	-198
гда	-199
лет	-200
ско	-201
меня	-202
лу	-203
му	-204
ёт	-205
без	-206
вез	-207
вер	-208
▁Ты	-209
комна	-210
утбук	-211
дорого	-212
ск	-213
ша	-214
▁Ч	-215
ван	-216
дру	-217
нет	-218
раз	-219
реп	-220
ром	-221
тра	-222
▁Хо	-223
есть	-224
ться	-225
холо	-226
хочу	-227
етито	-228
комнату	-229
▁ищуработ	-230
su	-231
дь	-232
мы	-233
фи	-234
▁Б	-235
▁З	-236
зна	-237
кий	-238
лад	-239
меб	-240
ная	-241
пла	-242
цен	-243
чем	-244
чит	-245
студи	-246
▁сдаю	-247
недорого	-248
репетито	-249
▁ищуработу	-250
зи	-251
ню	-252
пы	-253
ха	-254
ца	-255
ём	-256
вол	-257
ебе	-258
жет	-259
кро	-260
лес	-261
нас	-262
нес	-263
ния	-264
ные	-265
так	-266
баку	-267
гара	-268
чешь	-269
собаку	-270
студию	-271
только	-272
ноутбук	-273
▁ищусобаку	-274
репетиторапо	-275
▁ищурепетиторапо	-276
am	-277
ке	-278
пу	-279
щи	-280
▁Д	-281
▁Р	-282
...	-283
вст	-284
гра	-285
ели	-286
ешь	-287
кра	-288
лся	-289
оди	-290
сте	-291
это	-292
вело	-293
горо	-294
есна	-295
нный	-296
оста	-297
▁Мне	-298
▁про	-299
чется	-300
срочно	-301
▁Весна	-302
▁сдамквартиру	-303
Ph	-304
ng	-305
ин	-306
цу	-307
чь	-308
▁Г	-309
Sam	-310
вес	-311
воз	-312
вой	-313
вра	-314
гла	-315
еля	-316
ита	-317
кры	-318
мет	-319
ние	-320
ний	-321
пед	-322
пос	-323
тре	-324
три	-325
чес	-326
шка	-327
▁Во	-328
sung	-329
диль	-330
диван	-331
сипед	-332
Samsung	-333
телефон	-334
▁Хочешь	-335
▁срочно	-336
холодиль	-337
велосипед	-338
▁куплютелевизор	-339
ав	-340
ай	-341
ге	-342
ей	-343
из	-344
лы	-345
пь	-346
рт	-347
шу	-348
шё	-349
▁Е	-350
бой	-351
гру	-352
дес	-353
дол	-354
ерд	-355
жиз	-356
жно	-357
йду	-358
мой	-359
нам	-360
ном	-361
оль	-362
пол	-363
сло	-364
сне	-365
ход	-366
▁Не	-367
гово	-368
день	-369
лась	-370
помо	-371
ётся	-372
▁Что	-373
улице	-374
▁хочу	-375
латебя	-376
мебель	-377
холодильник	-378
LG	-379
жд	-380
ия	-381
мя	-382
сы	-383
ус	-384
фе	-385
вод	-386
всё	-387
его	-388
ерь	-389
ите	-390
кон	-391
кто	-392
лит	-393
мню	-394
оло	-395
рой	-396
ску	-397
спа	-398
шёл	-399
дела	-400
жела	-401
маши	-402
мной	-403
мони	-404
один	-405
пере	-406
пить	-407
стро	-408
шкаф	-409
▁Все	-410
лесос	-411
▁ищуу	-412
ремонт	-413
пылесос	-414
хочется	-415
▁сдамкомнату	-416
Ли	-417
вз	-418
вь	-419
ез	-420
ид	-421
кс	-422
тя	-423
хи	-424
iPh	-425
one	-426
Мос	-427
вки	-428
дел	-429
дна	-430
дно	-431
доб	-432
кая	-433
над	-434
ним	-435
нки	-436
ную	-437
она	-438
рав	-439
рам	-440
рик	-441
рок	-442
рый	-443
рят	-444
ски	-445
смо	-446
шку	-447
▁Мы	-448
▁Ну	-449
▁Ра	-450
быть	-451
вать	-452
вооб	-453
вцен	-454
дачу	-455
звез	-456
каза	-457
ного	-458
пада	-459
рука	-460
хоро	-461
айфон	-462
врача	-463
глаза	-464
ердце	-465
когда	-466
метро	-467
микро	-468
склад	-469
iPhone	-470
ельный	-471
работа	-472
ческий	-473
чителя	-474
▁ищума	-475
вцентре	-476
▁продаю	-477
микровол	-478
▁ищуврача	-479
▁ищустудию	-480
▁ищуучителя	-481
▁куплюноутбук	-482
▁сдаюквартиру	-483
ia	-484
иг	-485
лн	-486
нг	-487
ог	-488
уш	-489
яц	-490
▁Ж	-491
▁У	-492
бан	-493
бел	-494
бес	-495
вот	-496
вый	-497
гля	-498
дав	-499
дво	-500
ден	-501
дра	-502
ебы	-503
жен	-504
зав	-505
кое	-506
кру	-507
лах	-508
лед	-509
лек	-510
лки	-511
мен	-512
мер	-513
миг	-514
мир	-515
мми	-516
мна	-517
мод	-518
нти	-519
нто	-520
ных	-521
пре	-522
рах	-523
рей	-524
рен	-525
сво	-526
там	-527
тор	-528
уда	-529
ший	-530
▁Ая	-531
▁Бы	-532
▁Мо	-533
▁Он	-534
▁То	-535
авто	-536
бежа	-537
буду	-538
гита	-539
года	-540
голо	-541
деву	-542
дома	-543
дума	-544
ится	-545
ймне	-546
каин	-547
коне	-548
курт	-549
лось	-550
моло	-551
ново	-552
ноне	-553
отка	-554
посу	-555
стол	-556
тоне	-557
утро	-558
ходи	-559
чный	-560
элек	-561
▁При	-562
гараж	-563
герой	-564
жизнь	-565
компь	-566
наули	-567
отдам	-568
рядом	-569
скажу	-570
смотр	-571
стира	-572
хотел	-573
центр	-574
вообще	-575
города	-576
кокаин	-577
стобой	-578
никтоне	-579
ремонту	-580
стерапо	-581
электри	-582
▁ремонт	-583
▁куплюко	-584
микроволнов	-585
▁новыйдиван	-586
▁сдамстудию	-587
▁ищуквартиру	-588
▁ищумастерапо	-589
▁куплювелосипед	-590
!'	-591
,-	-592
Ik	-593
ea	-594
el	-595
er	-596
la	-597
li	-598
os	-599
st	-600
».	-601
Во	-602
Ну	-603
ая	-604
рь	-605
фо	-606
цы	-607
ые	-608
ья	-609
sta	-610
аль	-611
бли	-612
бою	-613
был	-614
дли	-615
дуя	-616
еле	-617
еря	-618
ета	-619
еты	-620
ине	-621
клю	-622
кол	-623
лен	-624
лом	-625
люб	-626
мах	-627
мей	-628
мои	-629
мок	-630
ное	-631
оро	-632
офи	-633
пар	-634
пас	-635
пес	-636
пло	-637
пор	-638
пят	-639
ран	-640
рка	-641
рна	-642
рое	-643
рус	-644
рых	-645
сам	-646
сил	-647
точ	-648
тру	-649
тьи	-650
уже	-651
хот	-652
чер	-653
яза	-654
▁За	-655
▁Пу	-656
▁Со	-657
Ikea	-658
Анто	-659
Моск	-660
бере	-661
вече	-662
виде	-663
вода	-664
гими	-665
гуля	-666
десь	-667
дива	-668
дная	-669
друг	-670
есяц	-671
итем	-672
кома	-673
кому	-674
крас	-675
краю	-676
лимо	-677
меру	-678
музы	-679
ника	-680
нтия	-681
ными	-682
перь	-683
прош	-684
рана	-685
само	-686
свет	-687
скую	-688
срок	-689
стер	-690
того	-691
уста	-692
чами	-693
чего	-694
этом	-695
ютер	-696
▁Про	-697
белый	-698
вкафе	-699
вству	-700
встре	-701
домой	-702
закры	-703
краси	-704
можно	-705
пойду	-706
сказа	-707
ского	-708
точно	-709
чтоты	-710
▁Есть	-711
быстро	-712
гитару	-713
грамми	-714
делать	-715
купить	-716
куртка	-717
ледний	-718
машину	-719
мебели	-720
надлит	-721
привез	-722
скажет	-723
сомной	-724
старый	-725
студен	-726
мебелью	-727
монитор	-728
намесяц	-729
наулицу	-730
поулице	-731
▁Только	-732
▁ищупод	-733
▁продам	-734
гарантия	-735
желаймне	-736
остаться	-737
компьютер	-738
последний	-739
посуточно	-740
программи	-741
скалатебя	-742
толькомиг	-743
▁сдамдачу	-744
ельныйсрок	-745
▁сдамгараж	-746
▁куплюайфон	-747
▁хочукупить	-748
▁куплюгитару	-749
▁новаякуртка	-750
▁куплютелефон	-751
▁новыйноутбук	-752
▁Естьтолькомиг	-753
надлительныйсрок	-754
13	-755
:'	-756
Le	-757
bo	-758
ch	-759
in	-760
it	-761
mi	-762
or	-763
ps	-764
ti	-765
АЗ	-766
ам	-767
иа	-768
ив	-769
им	-770
ис	-771
ов	-772
ом	-773
оч	-774
пя	-775
рю	-776
чё	-777
ёр	-778
▁Л	-779
Asu	-780
Bos	-781
Phi	-782
Pla	-783
Xia	-784
omi	-785
ВАЗ	-786
бер	-787
бил	-788
бор	-789
бра	-790
вай	-791
ваю	-792
вен	-793
вмо	-794
вна	-795
вне	-796
вые	-797
гло	-798
год	-799
дер	-800
дец	-801
доч	-802
дым	-803
емь	-804
жду	-805
жна	-806
зво	-807
йса	-808
кар	-809
кие	-810
кли	-811
кне	-812
кни	-813
кре	-814
кух	-815
лам	-816
лза	-817
лий	-818
лок	-819
льз	-820
лья	-821
мог	-822
мое	-823
мою	-824
моя	-825
нал	-826
наш	-827
нег	-828
нем	-829
нив	-830
ноч	-831
нул	-832
ным	-833
оты	-834
пит	-835
пли	-836
пом	-837
пот	-838
поч	-839
пою	-840
рва	-841
рит	-842
ров	-843
слу	-844
сме	-845
сна	-846
спо	-847
сре	-848
стр	-849
тем	-850
тка	-851
тов	-852
тро	-853
улы	-854
уте	-855
хпи	-856
циа	-857
чай	-858
чии	-859
чью	-860
шки	-861
щий	-862
▁Ве	-863
▁Вы	-864
▁Ив	-865
▁Ия	-866
▁Ка	-867
▁Ко	-868
▁Ли	-869
▁Ма	-870
▁Па	-871
Asus	-872
Play	-873
lips	-874
tion	-875
Вова	-876
бовь	-877
боль	-878
будь	-879
были	-880
было	-881
вата	-882
вают	-883
вете	-884
возь	-885
всем	-886
даже	-887
двер	-888
дере	-889
дожд	-890
друз	-891
езда	-892
ерхо	-893
если	-894
зима	-895
исто	-896
кого	-897
коро	-898
кофе	-899
кубу	-900
лень	-901
лето	-902
лись	-903
лкиу	-904
мати	-905
меще	-906
могу	-907
навы	-908
надо	-909
наза	-910
нами	-911
ноги	-912
нопо	-913
нуть	-914
одна	-915
педи	-916
план	-917
пова	-918
прия	-919
ремя	-920
сила	-921
снег	-922
солн	-923
став	-924
стен	-925
стра	-926
стру	-927
сума	-928
тебе	-929
чина	-930
этот	-931
▁Доб	-932
▁Зна	-933
▁Сле	-934
Bosch	-935
билет	-936
будет	-937
вечер	-938
внали	-939
всёже	-940
долго	-941
журна	-942
здесь	-943
книгу	-944
колду	-945
кошку	-946
ладко	-947
мидол	-948
найду	-949
напро	-950
нглий	-951
невоз	-952
ников	-953
нужен	-954
ольше	-955
отебе	-956
откры	-957
парик	-958
песни	-959
помню	-960
помог	-961
попро	-962
почти	-963
ренду	-964
рядли	-965
скоро	-966
спать	-967
среди	-968
столи	-969
удачи	-970
ходят	-971
холод	-972
хотят	-973
часто	-974
▁Лишь	-975
▁Ноне	-976
▁Стра	-977
▁ищуа	-978
Xiaomi	-979
Москве	-980
всегда	-981
вствуй	-982
думать	-983
завтра	-984
заказа	-985
звезде	-986
звезды	-987
зывать	-988
истори	-989
йсамне	-990
камеру	-991
красна	-992
кресло	-993
любовь	-994
матике	-995
налето	-996
нибудь	-997
откажу	-998
помеще	-999
потеря	-1000
сремон	-1001
старых	-1002
уметро	-1003
ходишь	-1004
▁Верхо	-1005
▁Помню	-1006
Philips	-1007
Playsta	-1008
всердце	-1009
встреча	-1010
говорит	-1011
говорят	-1012
желаешь	-1013
конечно	-1014
насвете	-1015
ремонто	-1016
роеутро	-1017
стираль	-1018
хороший	-1019
▁Волкиу	-1020
▁Значит	-1021
▁ищудом	-1022
▁кварти	-1023
бытьодин	-1024
вналичии	-1025
журналах	-1026
заказать	-1027
итемными	-1028
парикмах	-1029
работает	-1030
расскажу	-1031
смебелью	-1032
▁Поулице	-1033
▁Хочешья	-1034
▁ноутбук	-1035
▁сдамдом	-1036
годамидол	-1037
дравствуй	-1038
квартирах	-1039
мназвезде	-1040
сремонтом	-1041
чтоделать	-1042
▁куплюдет	-1043
невозможно	-1044
▁сдамсклад	-1045
▁срочнопро	-1046
Playstation	-1047
▁Доброеутро	-1048
▁Искалатебя	-1049
▁ищукомнату	-1050
▁куплюдиван	-1051
▁Волкиуходят	-1052
годамидолгими	-1053
желаймнеудачи	-1054
▁ищуучителяпо	-1055
▁куплюпылесос	-1056
▁новыйтелефон	-1057
▁хочузаказать	-1058
последнийгерой	-1059
старыхквартирах	-1060
▁Верхомназвезде	-1061
▁куплюкомпьютер	-1062
,2	-1063
14	-1064
15	-1065
Ca	-1066
ED	-1067
Hu	-1068
OL	-1069
Op	-1070
aw	-1071
da	-1072
ei	-1073
es	-1074
ha	-1075
ib	-1076
nd	-1077
no	-1078
nt	-1079
po	-1080
Ку	-1081
ОМ	-1082
ал	-1083
бь	-1084
вП	-1085
гд	-1086
дс	-1087
дя	-1088
ед	-1089
ек	-1090
жо	-1091
зу	-1092
ил	-1093
йн	-1094
йо	-1095
лё	-1096
мв	-1097
мс	-1098
од	-1099
ох	-1100
съ	-1101
сё	-1102
тв	-1103
уч	-1104
ян	-1105
ёг	-1106
▁'	-1107
Del	-1108
Hon	-1109
Son	-1110
Xbo	-1111
eri	-1112
son	-1113
Гес	-1114
Нуз	-1115
Рос	-1116
ави	-1117
ана	-1118
бен	-1119
бри	-1120
бро	-1121
бря	-1122
важ	-1123
ват	-1124
вго	-1125
вит	-1126
вла	-1127
вно	-1128
вну	-1129
вок	-1130
вою	-1131
воя	-1132
впу	-1133
всю	-1134
вто	-1135
вчу	-1136
газ	-1137
гаи	-1138
гал	-1139
гар	-1140
гах	-1141
где	-1142
гии	-1143
гко	-1144
гом	-1145
два	-1146
джа	-1147
дже	-1148
дин	-1149
дит	-1150
дка	-1151
дог	-1152
дож	-1153
дор	-1154
елю	-1155
ему	-1156
ере	-1157
ерс	-1158
есв	-1159
еха	-1160
еще	-1161
жал	-1162
жар	-1163
жат	-1164
жаю	-1165
жда	-1166
жин	-1167
жит	-1168
зай	-1169
зап	-1170
зел	-1171
зем	-1172
зой	-1173
зре	-1174
зчи	-1175
ивы	-1176
ина	-1177
иту	-1178
ймо	-1179
йти	-1180
каж	-1181
каз	-1182
кит	-1183
кля	-1184
кот	-1185
кри	-1186
кую	-1187
лав	-1188
лиз	-1189
лне	-1190
луй	-1191
моз	-1192
муд	-1193
муж	-1194
нев	-1195
ней	-1196
нео	-1197
нко	-1198
нна	-1199
нос	-1200
ноя	-1201
нте	-1202
оба	-1203
пер	-1204
пио	-1205
плы	-1206
пля	-1207
пой	-1208
пря	-1209
пти	-1210
рад	-1211
рая	-1212
рга	-1213
ред	-1214
рее	-1215
рош	-1216
рто	-1217
руж	-1218
рым	-1219
сах	-1220
сба	-1221
сва	-1222
сел	-1223
сер	-1224
сле	-1225
сли	-1226
сно	-1227
соз	-1228
сош	-1229
ссе	-1230
сты	-1231
тац	-1232
той	-1233
тот	-1234
тоя	-1235
тых	-1236
ужа	-1237
ури	-1238
утю	-1239
фис	-1240
фор	-1241
хни	-1242
цов	-1243
чат	-1244
чил	-1245
чки	-1246
шет	-1247
шие	-1248
ших	-1249
шую	-1250
щей	-1251
щем	-1252
ыми	-1253
эро	-1254
▁Го	-1255
▁Де	-1256
▁Из	-1257
▁Ни	-1258
▁От	-1259
▁Ря	-1260
▁Яи	-1261
Dell	-1262
Huaw	-1263
OLED	-1264
Oppo	-1265
Sony	-1266
Xbox	-1267
Воло	-1268
Горо	-1269
Купи	-1270
аяна	-1271
беса	-1272
была	-1273
вбою	-1274
ведь	-1275
верн	-1276
веты	-1277
вижу	-1278
вини	-1279
вино	-1280
воды	-1281
всво	-1282
всех	-1283
встр	-1284
выйи	-1285
вэто	-1286
газо	-1287
гать	-1288
гоид	-1289
даль	-1290
дамо	-1291
дане	-1292
деля	-1293
деть	-1294
деше	-1295
дешь	-1296
дозо	-1297
дона	-1298
дура	-1299
душа	-1300
ебяо	-1301
емьи	-1302
енка	-1303
ентя	-1304
ердц	-1305
ержи	-1306
ерка	-1307
жало	-1308
жают	-1309
ждет	-1310
ждый	-1311
жена	-1312
жеты	-1313
жешь	-1314
зане	-1315
зано	-1316
имне	-1317
йтра	-1318
какс	-1319
ката	-1320
клин	-1321
ксер	-1322
ктор	-1323
купе	-1324
купи	-1325
кухо	-1326
куша	-1327
лека	-1328
лечу	-1329
лимы	-1330
липо	-1331
лков	-1332
лога	-1333
льзя	-1334
люди	-1335
мате	-1336
мина	-1337
мини	-1338
мину	-1339
мира	-1340
моря	-1341
мпла	-1342
напо	-1343
науш	-1344
неба	-1345
нена	-1346
ники	-1347
нную	-1348
нови	-1349
новы	-1350
ночи	-1351
ноше	-1352
нрав	-1353
нтех	-1354
нуЛи	-1355
нуты	-1356
ньше	-1357
няню	-1358
огня	-1359
пала	-1360
пель	-1361
поня	-1362
порт	-1363
похо	-1364
поют	-1365
пять	-1366
разу	-1367
рами	-1368
рези	-1369
роду	-1370
роут	-1371
ругу	-1372
руса	-1373
руше	-1374
саду	-1375
сали	-1376
свои	-1377
свою	-1378
сишь	-1379
ские	-1380
ский	-1381
слов	-1382
смер	-1383
сосе	-1384
спро	-1385
стая	-1386
стно	-1387
стом	-1388
стою	-1389
стоя	-1390
стые	-1391
суль	-1392
сухо	-1393
сыпа	-1394
тало	-1395
тера	-1396
тоже	-1397
туда	-1398
тьна	-1399
улыб	-1400
ушла	-1401
филь	-1402
фото	-1403
хиру	-1404
ходы	-1405
хпор	-1406
цать	-1407
цель	-1408
циан	-1409
чему	-1410
чной	-1411
шины	-1412
шься	-1413
щика	-1414
ыйду	-1415
якак	-1416
янив	-1417
япою	-1418
ятся	-1419
▁...	-1420
▁Вот	-1421
▁Впи	-1422
▁Гру	-1423
▁Его	-1424
▁Иво	-1425
▁Ина	-1426
▁Лёг	-1427
▁Мос	-1428
▁Нес	-1429
▁Нет	-1430
▁Нож	-1431
▁Она	-1432
▁Пер	-1433
▁Пот	-1434
▁Рас	-1435
▁Тот	-1436
▁Тыу	-1437
▁Япо	-1438
Honor	-1439
Росси	-1440
безза	-1441
бенку	-1442
биоло	-1443
ближе	-1444
варка	-1445
верну	-1446
ветом	-1447
ветру	-1448
взгля	-1449
взеле	-1450
видео	-1451
вкино	-1452
вмоей	-1453
водит	-1454
война	-1455
впере	-1456
всема	-1457
всюду	-1458
вётся	-1459
гарет	-1460
гдебы	-1461
годня	-1462
гомод	-1463
графи	-1464
грудь	-1465
гулок	-1466
даешь	-1467
даром	-1468
дизай	-1469
длясъ	-1470
дождя	-1471
дорог	-1472
дочку	-1473
дском	-1474
ебяуч	-1475
жалуй	-1476
жения	-1477
жизни	-1478
запча	-1479
зачем	-1480
здоро	-1481
иного	-1482
какой	-1483
какты	-1484
карти	-1485
ковку	-1486
ковна	-1487
ковёр	-1488
комат	-1489
комне	-1490
конец	-1491
крови	-1492
ксебе	-1493
кухня	-1494
ленно	-1495
летит	-1496
летом	-1497
любви	-1498
любил	-1499
люблю	-1500
мался	-1501
матра	-1502
место	-1503
модбу	-1504
может	-1505
монию	-1506
наВАЗ	-1507
недам	-1508
незна	-1509
новая	-1510
новое	-1511
ночны	-1512
ночью	-1513
нугло	-1514
нужна	-1515
огром	-1516
одиня	-1517
очень	-1518
пиной	-1519
плита	-1520
плиту	-1521
плохо	-1522
покой	-1523
полне	-1524
посту	-1525
потом	-1526
проти	-1527
пуска	-1528
риста	-1529
рудно	-1530
сидел	-1531
скому	-1532
снеот	-1533
сорто	-1534
стены	-1535
столо	-1536
сторо	-1537
такой	-1538
такси	-1539
тация	-1540
тогда	-1541
тушка	-1542
тыпре	-1543
уменя	-1544
ходил	-1545
чёмне	-1546
▁Абез	-1547
▁Боль	-1548
▁Быва	-1549
▁Вгаз	-1550
▁Идуя	-1551
▁Коль	-1552
▁Кури	-1553
▁Меня	-1554
▁Ноты	-1555
▁Солн	-1556
▁Твоя	-1557
▁Тыне	-1558
▁Япро	-1559
▁Яшёл	-1560
▁авто	-1561
Huawei	-1562
Антона	-1563
Володь	-1564
Москва	-1565
англий	-1566
бежать	-1567
безпос	-1568
бербан	-1569
билеты	-1570
будуят	-1571
вается	-1572
ватает	-1573
верить	-1574
весело	-1575
винить	-1576
внутри	-1577
вотите	-1578
гладко	-1579
городе	-1580
грузчи	-1581
дворам	-1582
делить	-1583
децкий	-1584
диване	-1585
дляпро	-1586
догнал	-1587
должаю	-1588
друзей	-1589
ержись	-1590
етахпи	-1591
звонки	-1592
йтраве	-1593
каждый	-1594
крутых	-1595
летели	-1596
льётся	-1597
малень	-1598
мастер	-1599
мейего	-1600
миксер	-1601
моестр	-1602
моющий	-1603
мплаще	-1604
музыки	-1605
нарука	-1606
немогу	-1607
несмей	-1608
несмог	-1609
нехочу	-1610
ноутбу	-1611
обэтом	-1612
отноше	-1613
падает	-1614
пельси	-1615
плиточ	-1616
поезда	-1617
постоя	-1618
просто	-1619
прошло	-1620
пятнад	-1621
расска	-1622
родная	-1623
роутер	-1624
русами	-1625
самока	-1626
сантех	-1627
сквозь	-1628
скорее	-1629
смерти	-1630
смотрю	-1631
станет	-1632
стовой	-1633
стулья	-1634
такжда	-1635
теперь	-1636
трудно	-1637
уснуть	-1638
устала	-1639
хникой	-1640
ходные	-1641
хочешь	-1642
чайник	-1643
▁Выйду	-1644
▁Девки	-1645
▁Когда	-1646
▁Может	-1647
▁Новот	-1648
▁Пусть	-1649
▁Рядом	-1650
▁Сердц	-1651
▁Слезы	-1652
▁Снеба	-1653
▁Чтобы	-1654
▁ищуин	-1655
▁отдам	-1656
▁сдамо	-1657
вечерне	-1658
вечером	-1659
встрети	-1660
девушки	-1661
девушку	-1662
дизайне	-1663
дляводы	-1664
ебяокру	-1665
елаКупи	-1666
ентября	-1667
занозой	-1668
изРосси	-1669
истории	-1670
квартир	-1671
колдунь	-1672
консуль	-1673
котенка	-1674
лзамной	-1675
лимоном	-1676
менявпу	-1677
никогда	-1678
ныйдень	-1679
однаона	-1680
официан	-1681
повсюду	-1682
приятел	-1683
работку	-1684
разруше	-1685
сегодня	-1686
сказала	-1687
сколько	-1688
хирурга	-1689
цатьлет	-1690
чембыли	-1691
этотмир	-1692
▁Вечный	-1693
▁Врядли	-1694
▁Лёгкие	-1695
▁Москва	-1696
▁Накраю	-1697
▁Полков	-1698
▁Пустые	-1699
банкомат	-1700
биологии	-1701
вернётся	-1702
взеленом	-1703
всепесни	-1704
гомодним	-1705
докварти	-1706
ебяучить	-1707
жалуйста	-1708
закрываю	-1709
занегоид	-1710
запчасти	-1711
кухонный	-1712
нарукаве	-1713
наушники	-1714
нашгерой	-1715
нугловой	-1716
парковку	-1717
помогите	-1718
привезла	-1719
редников	-1720
рейснеот	-1721
складной	-1722
сыпается	-1723
▁Вгороде	-1724
▁Матушка	-1725
▁Тыхотел	-1726
▁ищуавто	-1727
▁ищуняню	-1728
безмебели	-1729
любилтебя	-1730
маленькая	-1731
нуЛимонию	-1732
нуюмашину	-1733
отебеяпою	-1734
помещение	-1735
помнюякак	-1736
сантехник	-1737
сортопеди	-1738
спарусами	-1739
янивчёмне	-1740
▁Иниктоне	-1741
▁Нотыушла	-1742
▁ищукнигу	-1743
▁сдамофис	-1744
▁сдаюдачу	-1745
Городецкий	-1746
аянадиване	-1747
вотитеперь	-1748
вэтойтраве	-1749
длядевушки	-1750
доквартиры	-1751
етахписали	-1752
математике	-1753
менявинить	-1754
навыходные	-1755
плиточника	-1756
постоянный	-1757
расремонто	-1758
тьихочется	-1759
ходишьтуда	-1760
электричес	-1761
▁Вжурналах	-1762
▁Онаскажет	-1763
▁Япривезла	-1764
▁ищугрузчи	-1765
▁ищумебель	-1766
▁куплюстол	-1767
▁куплюшкаф	-1768
▁новыйстол	-1769
▁новыйшкаф	-1770
велосипедбу	-1771
дляпрогулок	-1772
ебяокружают	-1773
елаКупидона	-1774
недамнесмей	-1775
никтонеждет	-1776
нуженмастер	-1777
парикмахерс	-1778
тыпрекрасна	-1779
центргорода	-1780
▁Абезмузыки	-1781
▁Всеговорят	-1782
▁Втелевизор	-1783
▁Мнехочется	-1784
▁Неостаться	-1785
▁Пожалуйста	-1786
▁Япродолжаю	-1787
▁ищудевушку	-1788
▁ищуподругу	-1789
▁куплювидео	-1790
▁куплюстоло	-1791
▁отдамдаром	-1792
Нуздравствуй	-1793
диванугловой	-1794
йсамнебудуят	-1795
консультация	-1796
мейегосомной	-1797
программиста	-1798
такждалатебя	-1799
▁Вечныйпокой	-1800
▁Кольжелаешь	-1801
▁ищусобакула	-1802
▁куплюкамеру	-1803
▁куплюкресло	-1804
▁куплюмиксер	-1805
▁новаямебель	-1806
▁сдаюкомнату	-1807
всердцемоестр	-1808
запчастинаВАЗ	-1809
микроволновка	-1810
микроволновку	-1811
отдамвсепесни	-1812
пятнадцатьлет	-1813
уженевозможно	-1814
чайникэлектри	-1815
▁Выйдунаулицу	-1816
▁куплюмонитор	-1817
▁куплюстираль	-1818
▁новыйпылесос	-1819
▁сдампарковку	-1820
▁срочнопродам	-1821
безпосредников	-1822
дворамитемными	-1823
доставказавтра	-1824
занегоидержись	-1825
матрасортопеди	-1826
остатьсястобой	-1827
▁Втелевизореты	-1828
▁Иниктонехотел	-1829
▁Тыуходишьтуда	-1830
▁ищуплиточника	-1831
▁ищуподработку	-1832
▁куплюнаушники	-1833
янивчёмнеоткажу	-1834
▁Вгазетахписали	-1835
▁новыйтелевизор	-1836
▁Пожелаймнеудачи	-1837
▁Тыхотелбытьодин	-1838
▁ищупрограммиста	-1839
,5	-1840
,7	-1841
.'	-1842
.1	-1843
02	-1844
07	-1845
11	-1846
12	-1847
21	-1848
28	-1849
37	-1850
54	-1851
55	-1852
?–	-1853
Ac	-1854
Ad	-1855
At	-1856
Av	-1857
BL	-1858
CL	-1859
Dy	-1860
Fe	-1861
HP	-1862
IK	-1863
JV	-1864
MS	-1865
Ma	-1866
On	-1867
Pi	-1868
Pr	-1869
RO	-1870
RT	-1871
Re	-1872
SR	-1873
St	-1874
TP	-1875
US	-1876
XR	-1877
dm	-1878
do	-1879
go	-1880
io	-1881
lo	-1882
py	-1883
rp	-1884
th	-1885
vi	-1886
vo	-1887
ws	-1888
АР	-1889
ВТ	-1890
ГЭ	-1891
До	-1892
За	-1893
ЙК	-1894
Ле	-1895
Лю	-1896
Но	-1897
Ра	-1898
Та	-1899
EA	-1900
Хо	-1901
ЯД	-1902
аз	-1903
ас	-1904
бр	-1905
вё	-1906
гр	-1907
дю	-1908
ев	-1909
ею	-1910
её	-1911
зь	-1912
иб	-1913
ик	-1914
йУ	-1915
йс	-1916
кя	-1917
лб	-1918
нд	-1919
нк	-1920
нё	-1921
ок	-1922
оф	-1923
рв	-1924
рк	-1925
рш	-1926
сз	-1927
тю	-1928
ук	-1929
ум	-1930
ую	-1931
ху	-1932
цв	-1933
цш	-1934
чн	-1935
щь	-1936
ье	-1937
юм	-1938
яг	-1939
ям	-1940
яо	-1941
яр	-1942
ёд	-1943
ёз	-1944
ёо	-1945
ёх	-1946
–«	-1947
▁2	-1948
▁M	-1949
▁W	-1950
▁Ш	-1951
,20	-1952
Adi	-1953
JVC	-1954
Mac	-1955
Pro	-1956
ROG	-1957
RTX	-1958
esS	-1959
ito	-1960
lim	-1961
ond	-1962
Дру	-1963
алг	-1964
ану	-1965
асф	-1966
ают	-1967
бах	-1968
бит	-1969
бка	-1970
бку	-1971
блю	-1972
бне	-1973
бол	-1974
влю	-1975
воё	-1976
вту	-1977
вше	-1978
вых	-1979
вян	-1980
вёт	-1981
гат	-1982
гаю	-1983
гее	-1984
гео	-1985
глу	-1986
гос	-1987
дай	-1988
дку	-1989
дла	-1990
дой	-1991
док	-1992
дох	-1993
дто	-1994
дём	-1995
ебь	-1996
еда	-1997
еду	-1998
еза	-1999
iba	-2000
Ану	-2001
бат	-2002
вку	-2003
впо	-2004
гиб	-2005
гка	-2006
дал	-2007
ейт	-2008
ене	-2009
ера	-2010
етв	-2011
жам	-2012
ждё	-2013
жея	-2014
жку	-2015
жра	-2016
заг	-2017
зао	-2018
зас	-2019
зет	-2020
зме	-2021
зне	-2022
зно	-2023
зра	-2024
ика	-2025
ико	-2026
или	-2027
ино	-2028
ипо	-2029
иск	-2030
ито	-2031
ияо	-2032
йку	-2033
йпо	-2034
кде	-2035
кза	-2036
ких	-2037
кор	-2038
коф	-2039
кош	-2040
кпо	-2041
кту	-2042
куж	-2043
кул	-2044
куп	-2045
лаж	-2046
лев	-2047
лею	-2048
лка	-2049
лко	-2050
лоб	-2051
луч	-2052
мат	-2053
маш	-2054
мил	-2055
мит	-2056
мли	-2057
млю	-2058
мощ	-2059
мяг	-2060
наа	-2061
наж	-2062
нах	-2063
нда	-2064
нен	-2065
нер	-2066
неу	-2067
нех	-2068
нис	-2069
нка	-2070
нку	-2071
ног	-2072
нок	-2073
нцу	-2074
ори	-2075
пач	-2076
пащ	-2077
пну	-2078
поз	-2079
ппу	-2080
пут	-2081
раж	-2082
рби	-2083
рда	-2084
рис	-2085
рки	-2086
рку	-2087
рни	-2088
род	-2089
руч	-2090
рял	-2091
сза	-2092
сма	-2093
соб	-2094
ссо	-2095
стя	-2096
сьв	-2097
тар	-2098
тая	-2099
атр	-2100
ваи	-2101
вче	-2102
доа	-2103
елу	-2104
емо	-2105
еть	-2106
етё	-2107
кеи	-2108
кет	-2109
кмо	-2110
мов	-2111
мос	-2112
нии	-2113
нит	-2114
нию	-2115
пел	-2116
слё	-2117
спе	-2118
тив	-2119
тие	-2120
тиу	-2121
тоб	-2122
ток	-2123
тол	-2124
тон	-2125
тым	-2126
уро	-2127
уют	-2128
фай	-2129
хло	-2130
хма	-2131
хре	-2132
цао	-2133
цах	-2134
цет	-2135
чая	-2136
чен	-2137
чом	-2138
шам	-2139
шаф	-2140
шее	-2141
шен	-2142
щеб	-2143
ъят	-2144
эко	-2145
эти	-2146
юда	-2147
юко	-2148
яда	-2149
яжи	-2150
яка	-2151
ясь	-2152
▁Вч	-2153
▁Зв	-2154
▁Ик	-2155
▁Ис	-2156
▁Ми	-2157
▁Оч	-2158
▁Ре	-2159
▁по	-2160
...'	-2161
Atla	-2162
IKEA	-2163
Redm	-2164
Seri	-2165
Stel	-2166
esit	-2167
indo	-2168
pyth	-2169
Боди	-2170
Друз	-2171
Иван	-2172
Квен	-2173
Опас	-2174
авда	-2175
айпа	-2176
акое	-2177
амет	-2178
атра	-2179
бать	-2180
беда	-2181
беды	-2182
бзна	-2183
боиз	-2184
бота	-2185
вПод	-2186
вазу	-2187
валя	-2188
взор	-2189
види	-2190
вина	-2191
виса	-2192
вкар	-2193
води	-2194
вока	-2195
вслу	-2196
вспо	-2197
всём	-2198
вызы	-2199
Аль	-2200
абы	-2201
ашь	-2202
вич	-2203
вов	-2204
вух	-2205
гов	-2206
гор	-2207
дям	-2208
игр	-2209
низ	-2210
ово	-2211
рез	-2212
рею	-2213
тье	-2214
фре	-2215
хли	-2216
ыит	-2217
ыйс	-2218
▁Аи	-2219
▁Од	-2220
ашью	-2221
водо	-2222
выле	-2223
гами	-2224
гида	-2225
гона	-2226
гопе	-2227
гори	-2228
дазо	-2229
даст	-2230
дата	-2231
двес	-2232
деса	-2233
длес	-2234
дпри	-2235
друж	-2236
дует	-2237
ебре	-2238
езво	-2239
езна	-2240
екте	-2241
елар	-2242
елат	-2243
елве	-2244
елем	-2245
елет	-2246
елна	-2247
елюб	-2248
емне	-2249
емок	-2250
енью	-2251
ером	-2252
есло	-2253
есни	-2254
етза	-2255
етил	-2256
етне	-2257
етот	-2258
жево	-2259
жело	-2260
жене	-2261
жест	-2262
живи	-2263
жили	-2264
завы	-2265
зага	-2266
зама	-2267
зимы	-2268
знаю	-2269
зоре	-2270
игра	-2271
игро	-2272
идти	-2273
изнь	-2274
икру	-2275
илет	-2276
инеж	-2277
иста	-2278
итан	-2279
итес	-2280
ищус	-2281
кажу	-2282
како	-2283
кана	-2284
кане	-2285
каса	-2286
кивП	-2287
киго	-2288
клет	-2289
кожа	-2290
коло	-2291
коля	-2292
кона	-2293
коре	-2294
кост	-2295
кото	-2296
кпри	-2297
кутв	-2298
лака	-2299
Gia	-2300
дея	-2301
зам	-2302
зло	-2303
ила	-2304
иши	-2305
кла	-2306
кло	-2307
лиж	-2308
лин	-2309
лои	-2310
лоч	-2311
нде	-2312
обы	-2313
опы	-2314
пил	-2315
рую	-2316
руя	-2317
тиз	-2318
шит	-2319
шке	-2320
ятс	-2321
вала	-2322
вела	-2323
влес	-2324
воло	-2325
ганг	-2326
гаяц	-2327
дево	-2328
духа	-2329
дятс	-2330
емья	-2331
енне	-2332
еный	-2333
зава	-2334
зали	-2335
земл	-2336
злой	-2337
итре	-2338
кино	-2339
лава	-2340
лами	-2341
лишь	-2342
лову	-2343
лпас	-2344
лсяя	-2345
луги	-2346
лупо	-2347
лучи	-2348
лыжи	-2349
льбе	-2350
льбо	-2351
льти	-2352
лядо	-2353
мазо	-2354
мала	-2355
мане	-2356
меет	-2357
мены	-2358
мерк	-2359
мкры	-2360
мнеЯ	-2361
мнев	-2362
мнюю	-2363
мода	-2364
моей	-2365
море	-2366
моро	-2367
муте	-2368
мясо	-2369
наЛи	-2370
наво	-2371
нане	-2372
нано	-2373
нахо	-2374
нача	-2375
наян	-2376
небе	-2377
нево	-2378
нежа	-2379
неза	-2380
несб	-2381
нета	-2382
нету	-2383
нешь	-2384
нжал	-2385
нику	-2386
нили	-2387
нист	-2388
ните	-2389
ница	-2390
нияс	-2391
ногу	-2392
нона	-2393
ноон	-2394
нори	-2395
ноча	-2396
нуки	-2397
ньсе	-2398
няти	-2399
Lin	-2400
das	-2401
Сер	-2402
Ума	-2403
дио	-2404
еся	-2405
жди	-2406
жей	-2407
иди	-2408
ман	-2409
мии	-2410
оби	-2411
отв	-2412
све	-2413
тут	-2414
тьв	-2415
уга	-2416
ужи	-2417
фиг	-2418
хий	-2419
хок	-2420
цам	-2421
шер	-2422
ять	-2423
Link	-2424
блен	-2425
вкра	-2426
гаяо	-2427
ерма	-2428
знас	-2429
кать	-2430
кида	-2431
коль	-2432
мато	-2433
мимо	-2434
мире	-2435
нать	-2436
нема	-2437
обще	-2438
окна	-2439
олах	-2440
осём	-2441
офис	-2442
пана	-2443
паны	-2444
папи	-2445
паук	-2446
пека	-2447
печь	-2448
пица	-2449
пише	-2450
плей	-2451
побе	-2452
подо	-2453
пози	-2454
поки	-2455
поко	-2456
поми	-2457
пона	-2458
поно	-2459
поро	-2460
посо	-2461
пота	-2462
поту	-2463
прид	-2464
прое	-2465
рады	-2466
раин	-2467
рани	-2468
рано	-2469
раст	-2470
реко	-2471
реми	-2472
рены	-2473
риня	-2474
рнти	-2475
рост	-2476
рошо	-2477
руты	-2478
рька	-2479
саны	-2480
сиги	-2481
сижу	-2482
сили	-2483
силы	-2484
скаи	-2485
ской	-2486
стей	-2487
стли	-2488
стут	-2489
сына	-2490
сьна	-2491
сёиз	-2492
тамо	-2493
тего	-2494
тень	-2495
тиры	-2496
тить	-2497
ткой	-2498
тора	-2499
,70	-2500
бух	-2501
вей	-2502
вих	-2503
дбу	-2504
дви	-2505
еды	-2506
йся	-2507
ким	-2508
кир	-2509
ляр	-2510
пры	-2511
пью	-2512
рил	-2513
саю	-2514
сев	-2515
сут	-2516
тащ	-2517
тин	-2518
шеф	-2519
ёти	-2520
▁су	-2521
inUS	-2522
гает	-2523
глах	-2524
есто	-2525
кинь	-2526
льбу	-2527
лёта	-2528
ману	-2529
небу	-2530
неви	-2531
ниод	-2532
нума	-2533
рика	-2534
ружь	-2535
руки	-2536
сена	-2537
слад	-2538
стои	-2539
сяма	-2540
торо	-2541
трес	-2542
трис	-2543
тыуш	-2544
тьне	-2545
ужин	-2546
уйти	-2547
умру	-2548
унас	-2549
урав	-2550
усби	-2551
усил	-2552
утри	-2553
форм	-2554
цеяр	-2555
цкую	-2556
цшко	-2557
чани	-2558
часа	-2559
часы	-2560
чнов	-2561
чугу	-2562
чужо	-2563
швей	-2564
шиза	-2565
шишь	-2566
шков	-2567
шной	-2568
ыйпл	-2569
ьмне	-2570
яуже	-2571
ёмна	-2572
▁Амо	-2573
▁Бес	-2574
▁Бро	-2575
▁Вет	-2576
▁Вло	-2577
▁Вни	-2578
▁Выц	-2579
▁Ива	-2580
▁Ивз	-2581
▁Иже	-2582
▁Или	-2583
▁Ине	-2584
▁Ирв	-2585
▁Ито	-2586
▁Ког	-2587
▁Кро	-2588
▁Кры	-2589
▁Мно	-2590
▁Нов	-2591
▁ОнВ	-2592
▁Сия	-2593
▁Чем	-2594
▁Чья	-2595
▁Яза	-2596
▁Яка	-2597
▁сло	-2598
Avito	-2599
Sha	-2600
веи	-2601
вий	-2602
вта	-2603
дем	-2604
исо	-2605
ппа	-2606
пси	-2607
сав	-2608
сог	-2609
сом	-2610
уси	-2611
цве	-2612
цуз	-2613
ццу	-2614
▁До	-2615
Acer	-2616
ЙКАР	-2617
бала	-2618
боры	-2619
буви	-2620
гани	-2621
гаре	-2622
доси	-2623
жида	-2624
жить	-2625
ибры	-2626
итьи	-2627
каси	-2628
лега	-2629
меро	-2630
небы	-2631
нием	-2632
очем	-2633
пали	-2634
пало	-2635
ресе	-2636
рисо	-2637
таль	-2638
тами	-2639
тром	-2640
шума	-2641
▁Аты	-2642
▁Сло	-2643
▁Яне	-2644
▁Яни	-2645
Giant	-2646
Sharp	-2647
erida	-2648
ibson	-2649
ВАЗбу	-2650
Гесер	-2651
Едане	-2652
Здоро	-2653
Нужно	-2654
ОЙКАР	-2655
альту	-2656
аютпу	-2657
балки	-2658
барка	-2659
беден	-2660
безве	-2661
бивая	-2662
бидет	-2663
билву	-2664
близо	-2665
бнесб	-2666
божал	-2667
боско	-2668
брошу	-2669
ваэро	-2670
вгара	-2671
вгонг	-2672
вдаль	-2673
вдере	-2674
ведет	-2675
векне	-2676
верши	-2677
ветст	-2678
ветша	-2679
вигру	-2680
видел	-2681
вклин	-2682
влюби	-2683
возку	-2684
вомон	-2685
вопро	-2686
всего	-2687
всеив	-2688
вслух	-2689
всёмо	-2690
всёне	-2691
вухле	-2692
вчера	-2693
выпос	-2694
вятся	-2695
глади	-2696
горою	-2697
груди	-2698
гулял	-2699
Can	-2700
вля	-2701
дей	-2702
жец	-2703
лей	-2704
удь	-2705
уты	-2706
шум	-2707
▁Си	-2708
▁Ск	-2709
▁Съ	-2710
врай	-2711
граф	-2712
доже	-2713
жека	-2714
жива	-2715
зике	-2716
зона	-2717
лжец	-2718
ниоч	-2719
нузи	-2720
пись	-2721
раны	-2722
розы	-2723
стью	-2724
утся	-2725
чала	-2726
чаль	-2727
чата	-2728
▁Жил	-2729
▁Сда	-2730
▁Ста	-2731
▁Сти	-2732
▁Сча	-2733
Canon	-2734
взлет	-2735
вляет	-2736
дамне	-2737
дамра	-2738
двери	-2739
дверь	-2740
двоим	-2741
дения	-2742
джаке	-2743
довый	-2744
доеду	-2745
дожди	-2746
дозор	-2747
доплы	-2748
дослу	-2749
дочки	-2750
дубез	-2751
дуеще	-2752
дыесв	-2753
дяной	-2754
ездес	-2755
елишь	-2756
елоис	-2757
емдво	-2758
емчай	-2759
енний	-2760
есаль	-2761
етыне	-2762
етьес	-2763
жаешь	-2764
жанаа	-2765
женас	-2766
жепри	-2767
живот	-2768
жинсы	-2769
жиста	-2770
житем	-2771
замми	-2772
заним	-2773
засто	-2774
заход	-2775
зетки	-2776
зимне	-2777
знако	-2778
зовёт	-2779
зорис	-2780
ивста	-2781
идёти	-2782
импод	-2783
истал	-2784
исюда	-2785
итедо	-2786
итнам	-2787
итпро	-2788
итьне	-2789
ишину	-2790
йУкуп	-2791
йсяме	-2792
каква	-2793
какво	-2794
какло	-2795
кирез	-2796
кихго	-2797
кладо	-2798
ключи	-2799
One	-2800
Tos	-2801
вши	-2802
мпи	-2803
пир	-2804
сад	-2805
сса	-2806
хса	-2807
юпь	-2808
▁Те	-2809
Tosh	-2810
бегу	-2811
боти	-2812
вком	-2813
вспи	-2814
высо	-2815
доши	-2816
души	-2817
дьбу	-2818
забе	-2819
ипес	-2820
нажа	-2821
наса	-2822
ницу	-2823
ньки	-2824
пима	-2825
поте	-2826
слом	-2827
стул	-2828
сямы	-2829
тепл	-2830
юпья	-2831
▁Ноя	-2832
▁Ран	-2833
▁Три	-2834
▁Тру	-2835
ампир	-2836
знает	-2837
какне	-2838
кидаю	-2839
комба	-2840
корми	-2841
ктера	-2842
кябыл	-2843
ления	-2844
летав	-2845
лечит	-2846
либан	-2847
лиоба	-2848
листа	-2849
лнепо	-2850
лодку	-2851
лонки	-2852
лотка	-2853
лсявс	-2854
лужам	-2855
любой	-2856
людит	-2857
мвкли	-2858
менят	-2859
месте	-2860
мимет	-2861
мнежи	-2862
моего	-2863
мония	-2864
музык	-2865
навер	-2866
насва	-2867
насмо	-2868
наяна	-2869
ндекс	-2870
ндшаф	-2871
невес	-2872
недже	-2873
немно	-2874
ненап	-2875
несда	-2876
ниедо	-2877
нимут	-2878
нипро	-2879
ниявы	-2880
новые	-2881
ноине	-2882
нтоха	-2883
нулад	-2884
нулся	-2885
ныеус	-2886
ныхвё	-2887
ньшея	-2888
нятия	-2889
обака	-2890
образ	-2891
общем	-2892
онзна	-2893
ориги	-2894
отсту	-2895
охнес	-2896
парня	-2897
пасёт	-2898
певта	-2899
,50	-2900
выж	-2901
жий	-2902
жил	-2903
нят	-2904
опу	-2905
сын	-2906
чую	-2907
чьи	-2908
явы	-2909
▁АС	-2910
буйс	-2911
вкам	-2912
дков	-2913
заме	-2914
запе	-2915
иска	-2916
лыми	-2917
люст	-2918
люсь	-2919
маче	-2920
невы	-2921
неме	-2922
ноша	-2923
пеши	-2924
рабо	-2925
ская	-2926
ятес	-2927
бомне	-2928
говая	-2929
дочьи	-2930
иться	-2931
кидва	-2932
кухню	-2933
ламне	-2934
места	-2935
моево	-2936
момен	-2937
номне	-2938
пасна	-2939
печат	-2940
пиццу	-2941
пичес	-2942
пламе	-2943
повод	-2944
подза	-2945
полза	-2946
полня	-2947
понял	-2948
порта	-2949
портр	-2950
прома	-2951
промо	-2952
птица	-2953
птицы	-2954
пьюча	-2955
рамид	-2956
расно	-2957
ребри	-2958
ресто	-2959
рикза	-2960
ристи	-2961
ровщи	-2962
ртфон	-2963
рубку	-2964
руках	-2965
рыеза	-2966
савца	-2967
сбере	-2968
серви	-2969
сзаку	-2970
сижуи	-2971
сково	-2972
смеха	-2973
снего	-2974
сомне	-2975
сорва	-2976
сошла	-2977
стало	-2978
столь	-2979
стому	-2980
стуку	-2981
ступл	-2982
сунос	-2983
сутра	-2984
тадля	-2985
таксу	-2986
театр	-2987
тележ	-2988
телен	-2989
теров	-2990
толоч	-2991
толпу	-2992
тонки	-2993
трите	-2994
трозы	-2995
тузор	-2996
тьиду	-2997
тьсна	-2998
убежа	-2999
!..	-3000
024	-3001
аты	-3002
дня	-3003
учи	-3004
цев	-3005
чий	-3006
язы	-3007
slim	-3008
баня	-3009
везу	-3010
вуло	-3011
дают	-3012
дляп	-3013
кдля	-3014
мочи	-3015
назы	-3016
няня	-3017
осле	-3018
приш	-3019
сдаю	-3020
седы	-3021
тдет	-3022
тыбу	-3023
тыст	-3024
усну	-3025
фран	-3026
цепи	-3027
ючто	-3028
япри	-3029
▁Иты	-3030
водке	-3031
даюсь	-3032
дляры	-3033
есник	-3034
зорва	-3035
какле	-3036
капли	-3037
лючий	-3038
надом	-3039
нажёр	-3040
рошно	-3041
страх	-3042
тился	-3043
укого	-3044
улицы	-3045
усвою	-3046
усьна	-3047
утмне	-3048
фигня	-3049
хаски	-3050
хочук	-3051
цветы	-3052
чарку	-3053
чемне	-3054
чисто	-3055
чтоза	-3056
чьнес	-3057
шадка	-3058
шахма	-3059
шенет	-3060
шуюпо	-3061
шёвый	-3062
ыйном	-3063
этова	-3064
этота	-3065
явезу	-3066
явыби	-3067
яесть	-3068
языка	-3069
ятебе	-3070
ятень	-3071
яшиза	-3072
ёмным	-3073
ёобор	-3074
ётным	-3075
▁2024	-3076
▁Адля	-3077
▁Аеще	-3078
▁Азна	-3079
▁Амок	-3080
▁Арка	-3081
▁Ачто	-3082
▁Аяне	-3083
▁Было	-3084
▁Ведь	-3085
▁Верь	-3086
▁Вчём	-3087
▁Годы	-3088
▁Даль	-3089
▁Дети	-3090
▁Замы	-3091
▁Ивол	-3092
▁Иждё	-3093
▁Имуд	-3094
▁Исно	-3095
▁Кнес	-3096
▁Нали	-3097
▁Нешу	-3098
▁Новс	-3099
вую	-3100
дые	-3101
чте	-3102
▁Ок	-3103
вуто	-3104
вуют	-3105
горя	-3106
губы	-3107
дети	-3108
диск	-3109
етия	-3110
ждёт	-3111
пают	-3112
шест	-3113
ются	-3114
▁Наш	-3115
Dyson	-3116
альве	-3117
весну	-3118
вытащ	-3119
домел	-3120
ельем	-3121
ехать	-3122
коймо	-3123
койчу	-3124
нажат	-3125
рекой	-3126
сразу	-3127
тьдым	-3128
успел	-3129
ценой	-3130
▁Вэто	-3131
▁Ивсе	-3132
▁Нате	-3133
▁Нона	-3134
▁Нопо	-3135
▁Онне	-3136
▁Опоз	-3137
▁Поал	-3138
▁Попу	-3139
▁Реши	-3140
▁Толь	-3141
▁Тыни	-3142
▁Тыра	-3143
▁Утро	-3144
▁Шпио	-3145
▁Япри	-3146
▁ищую	-3147
▁пода	-3148
Adidas	-3149
Atlant	-3150
Merida	-3151
Друзья	-3152
Завуло	-3153
Москвы	-3154
атымне	-3155
бежала	-3156
безвез	-3157
бесами	-3158
бесные	-3159
битыит	-3160
близне	-3161
бойцов	-3162
бухгал	-3163
бьются	-3164
важней	-3165
ванной	-3166
ваютпи	-3167
видишь	-3168
вкаком	-3169
вкомпл	-3170
внокто	-3171
водные	-3172
возвра	-3173
возьту	-3174
вокалу	-3175
впокое	-3176
врядли	-3177
вторял	-3178
втурби	-3179
вуглах	-3180
выйгал	-3181
выраст	-3182
выходы	-3183
гдапод	-3184
гидапо	-3185
гкомои	-3186
глушит	-3187
голова	-3188
голост	-3189
гопеда	-3190
гостей	-3191
грусти	-3192
гуляют	-3193
далека	-3194
дальше	-3195
десять	-3196
детина	-3197
дешьра	-3198
длесом	-3199
MSI	-3200
ватр	-3201
гонь	-3202
моби	-3203
обра	-3204
рень	-3205
скор	-3206
стил	-3207
суши	-3208
шний	-3209
▁Слу	-3210
Stels	-3211
ветви	-3212
вувсе	-3213
гдавы	-3214
еняще	-3215
лидав	-3216
меняф	-3217
некто	-3218
нести	-3219
осень	-3220
раинт	-3221
расбу	-3222
распи	-3223
своею	-3224
цвели	-3225
чувет	-3226
ятвоё	-3227
▁Мнет	-3228
дажема	-3229
длясъё	-3230
днаяпы	-3231
добрый	-3232
добрым	-3233
дорога	-3234
дорожу	-3235
ебезна	-3236
ейтбор	-3237
емново	-3238
емчайв	-3239
ермана	-3240
есмены	-3241
есячно	-3242
етыего	-3243
ешьрас	-3244
замной	-3245
земный	-3246
зрение	-3247
илетво	-3248
иязнаю	-3249
кеисту	-3250
ковдля	-3251
коврик	-3252
койдоб	-3253
коменя	-3254
компью	-3255
купива	-3256
лавзор	-3257
лепота	-3258
летела	-3259
менный	-3260
метров	-3261
миребу	-3262
мнеотв	-3263
мойсын	-3264
момент	-3265
мудрей	-3266
музыка	-3267
мусаду	-3268
мягкий	-3269
навысо	-3270
напопо	-3271
насапо	-3272
натебя	-3273
начина	-3274
негрею	-3275
нелюди	-3276
несним	-3277
нестер	-3278
нетсна	-3279
никмой	-3280
ниочём	-3281
нистры	-3282
ниться	-3283
нихпор	-3284
ниязав	-3285
нныйне	-3286
новкит	-3287
ноневс	-3288
нотебя	-3289
ночами	-3290
ношале	-3291
нского	-3292
нулмир	-3293
нускор	-3294
нуться	-3295
ныйзво	-3296
ныйкон	-3297
ныйпод	-3298
ныйуро	-3299
Cas	-3300
амы	-3301
зим	-3302
мыв	-3303
мых	-3304
▁Чу	-3305
▁Чё	-3306
Lego	-3307
дыха	-3308
киха	-3309
ключ	-3310
леям	-3311
меша	-3312
неск	-3313
разд	-3314
счит	-3315
шать	-3316
Casio	-3317
амыши	-3318
ванто	-3319
ерего	-3320
еттра	-3321
итраз	-3322
плава	-3323
репно	-3324
стром	-3325
тодру	-3326
тонко	-3327
трали	-3328
чемри	-3329
яться	-3330
яхочу	-3331
ёмные	-3332
▁Будь	-3333
▁Воро	-3334
▁Звез	-3335
▁Очем	-3336
▁Тывы	-3337
▁Тыже	-3338
▁Холо	-3339
▁Янив	-3340
говора	-3341
естьме	-3342
зимние	-3343
итрека	-3344
каться	-3345
каяноч	-3346
литрам	-3347
мешают	-3348
миесть	-3349
млюдям	-3350
наночь	-3351
нескры	-3352
нёшься	-3353
обожал	-3354
онпобе	-3355
отканы	-3356
офталь	-3357
падать	-3358
папины	-3359
пецшко	-3360
пласти	-3361
платье	-3362
пнувла	-3363
повара	-3364
повече	-3365
подкар	-3366
полста	-3367
помнят	-3368
помощи	-3369
понять	-3370
предла	-3371
пригла	-3372
приеха	-3373
приста	-3374
прошли	-3375
пуделя	-3376
работе	-3377
рамвая	-3378
распла	-3379
ремяку	-3380
ристав	-3381
рнтино	-3382
ромпро	-3383
рубежа	-3384
руками	-3385
русски	-3386
ручную	-3387
ршруты	-3388
рьпере	-3389
самыйс	-3390
свампи	-3391
своимя	-3392
селвол	-3393
сердце	-3394
сзерка	-3395
сигаре	-3396
сиделя	-3397
скольз	-3398
скресе	-3399
Yam	-3400
ект	-3401
слы	-3402
тке	-3403
щим	-3404
▁Ду	-3405
Yama	-3406
весь	-3407
вещи	-3408
ебез	-3409
изве	-3410
изры	-3411
крым	-3412
леса	-3413
нюха	-3414
чные	-3415
щицу	-3416
бался	-3417
диоло	-3418
жного	-3419
кание	-3420
ковье	-3421
краны	-3422
лсяиз	-3423
мивоз	-3424
нунас	-3425
оформ	-3426
плоем	-3427
ранен	-3428
расоз	-3429
сение	-3430
сружь	-3431
сухое	-3432
цебез	-3433
▁Ночь	-3434
▁Яего	-3435
Yamaha	-3436
висает	-3437
волков	-3438
гаража	-3439
геоста	-3440
дляигр	-3441
ерянна	-3442
ешьнем	-3443
жедура	-3444
каквол	-3445
каоста	-3446
неизве	-3447
ненный	-3448
нойнас	-3449
рымсло	-3450
слепит	-3451
смотри	-3452
снегра	-3453
собных	-3454
согрей	-3455
создал	-3456
солову	-3457
специа	-3458
ссовки	-3459
старик	-3460
столяр	-3461
строго	-3462
студия	-3463
тогона	-3464
тодуша	-3465
тыкуша	-3466
тыспро	-3467
утдаже	-3468
утести	-3469
фрегат	-3470
холога	-3471
хотцов	-3472
цанема	-3473
цветов	-3474
цкуюов	-3475
чается	-3476
частли	-3477
чемпла	-3478
чикаса	-3479
чилось	-3480
чтовсе	-3481
чтомыв	-3482
чтораз	-3483
шерстя	-3484
шующем	-3485
ялюблю	-3486
яскоро	-3487
▁АСвет	-3488
▁Атебя	-3489
▁Аяшёл	-3490
▁Былза	-3491
▁Вдень	-3492
▁Вночи	-3493
▁Всене	-3494
▁Встра	-3495
▁Вырва	-3496
▁Дальш	-3497
▁Ивоти	-3498
▁Игода	-3499
▁Ещ	-3500
испа	-3501
ктов	-3502
ношу	-3503
ройв	-3504
шёлк	-3505
▁Ему	-3506
аметр	-3507
водка	-3508
вошёл	-3509
всерь	-3510
дежно	-3511
йдешь	-3512
ласьи	-3513
ногоо	-3514
нужно	-3515
олоть	-3516
прошу	-3517
собой	-3518
тоску	-3519
тропи	-3520
▁Голо	-3521
▁Недо	-3522
▁Обер	-3523
▁Стем	-3524
быодин	-3525
всёэто	-3526
доброе	-3527
игройв	-3528
кикида	-3529
кроват	-3530
ласьна	-3531
лимони	-3532
машина	-3533
машины	-3534
мнедай	-3535
пришёл	-3536
раднев	-3537
▁Аизна	-3538
▁Ещебы	-3539
▁Иесть	-3540
▁Икакс	-3541
▁Ипохо	-3542
▁Итрес	-3543
▁Иявез	-3544
▁Какие	-3545
▁Кровь	-3546
▁Манит	-3547
▁Мнеда	-3548
▁Много	-3549
▁Навсе	-3550
▁Награ	-3551
▁Нажра	-3552
▁Наули	-3553
▁Новая	-3554
▁Ночто	-3555
▁Нучто	-3556
▁Ожида	-3557
▁Повер	-3558
▁Покой	-3559
▁Попро	-3560
▁Радио	-3561
▁Сдела	-3562
▁айфон	-3563
▁ищуде	-3564
▁ищуло	-3565
▁ищупо	-3566
▁работ	-3567
AsusROG	-3568
Toshiba	-3569
XboxOne	-3570
Здорово	-3571
ОМОЙКАР	-3572
Опасная	-3573
алгебре	-3574
амвсёне	-3575
аютпунк	-3576
безвина	-3577
безтебя	-3578
беспоко	-3579
бкаесть	-3580
борщицу	-3581
ботамоз	-3582
ботинки	-3583
будурад	-3584
будущим	-3585
былоспа	-3586
бытьран	-3587
вПодмос	-3588
варенду	-3589
ватапро	-3590
велаего	-3591
взлетая	-3592
видений	-3593
видеона	-3594
витриня	-3595
влюбовь	-3596
внебеса	-3597
вообщеб	-3598
вопросы	-3599
dia	-3600
уез	-3601
делю	-3602
дотя	-3603
ждут	-3604
идёт	-3605
прав	-3606
хили	-3607
хотя	-3608
цахи	-3609
▁Жду	-3610
diabo	-3611
Впере	-3612
вхоро	-3613
децни	-3614
икофе	-3615
кровь	-3616
лчани	-3617
много	-3618
онарь	-3619
падал	-3620
такая	-3621
хорош	-3622
чноиг	-3623
▁IKEA	-3624
▁Мыпь	-3625
▁Одна	-3626
▁Трав	-3627
Вперед	-3628
беспро	-3629
британ	-3630
втеатр	-3631
детски	-3632
еларжа	-3633
мсправ	-3634
разгля	-3635
розытю	-3636
ростка	-3637
сметро	-3638
старую	-3639
тогоры	-3640
утюжил	-3641
хороши	-3642
▁Мыпро	-3643
diabolo	-3644
всенета	-3645
вуютвсе	-3646
вылечил	-3647
высокая	-3648
газовая	-3649
ганидна	-3650
гдеесть	-3651
горячая	-3652
графана	-3653
дверный	-3654
девушке	-3655
делаешь	-3656
деньдру	-3657
денькой	-3658
деярисо	-3659
диванбу	-3660
диолога	-3661
длинный	-3662
длядево	-3663
дляобще	-3664
днадоро	-3665
доженам	-3666
дожника	-3667
доплыву	-3668
дорогой	-3669
ебьется	-3670
евветви	-3671
егождёт	-3672
езвонко	-3673
ейтборд	-3674
елетные	-3675
елименя	-3676
енебоиз	-3677
ердцемо	-3678
еркалах	-3679
есальто	-3680
есердце	-3681
етзакон	-3682
еёброшу	-3683
ждименя	-3684
жекакон	-3685
жеябуду	-3686
жнаБоди	-3687
забедой	-3688
завалит	-3689
занятия	-3690
заэтова	-3691
игровой	-3692
изньино	-3693
икрутиз	-3694
имновый	-3695
итрудно	-3696
ищусдав	-3697
какдома	-3698
каклоха	-3699
Ind	-3700
Небы	-3701
арен	-3702
брен	-3703
выев	-3704
давц	-3705
истр	-3706
ороч	-3707
торг	-3708
▁Был	-3709
бигля	-3710
вслед	-3711
драка	-3712
думал	-3713
дюймо	-3714
ебыли	-3715
между	-3716
необы	-3717
нонем	-3718
нымна	-3719
палки	-3720
росли	-3721
сголо	-3722
страи	-3723
▁Атам	-3724
▁Аята	-3725
▁Имен	-3726
▁Моей	-3727
▁Ядав	-3728
▁Яиду	-3729
аренда	-3730
голоси	-3731
группу	-3732
давцом	-3733
дюймов	-3734
ельных	-3735
инарод	-3736
истрел	-3737
квадра	-3738
молога	-3739
молода	-3740
опытоб	-3741
пичный	-3742
помощь	-3743
размер	-3744
разъят	-3745
ружкой	-3746
стекло	-3747
стится	-3748
▁Длядо	-3749
▁Короч	-3750
▁Оншёл	-3751
▁Яумру	-3752
Indesit	-3753
ватьпре	-3754
выевпля	-3755
какпоно	-3756
картины	-3757
клетчат	-3758
кожаный	-3759
комкино	-3760
комнате	-3761
компози	-3762
коротка	-3763
которых	-3764
красива	-3765
кторапо	-3766
лававих	-3767
лампана	-3768
лизсына	-3769
липодок	-3770
лисьсто	-3771
лошадка	-3772
льбомах	-3773
манепач	-3774
менедже	-3775
менябро	-3776
мертьне	-3777
мкрылом	-3778
мливать	-3779
мнакраю	-3780
мнеприд	-3781
многоде	-3782
моданна	-3783
моюношу	-3784
моястру	-3785
мсветом	-3786
мужская	-3787
мужской	-3788
мяимпод	-3789
нагрудь	-3790
надокак	-3791
небутак	-3792
неглаза	-3793
неоткры	-3794
нетсвет	-3795
неттебя	-3796
неёобор	-3797
ниеоста	-3798
нииогня	-3799
xel	-3800
esta	-3801
идуя	-3802
колё	-3803
курь	-3804
ужая	-3805
усам	-3806
▁Мяг	-3807
Pixel	-3808
Альпы	-3809
Антон	-3810
Вован	-3811
белые	-3812
берег	-3813
былтя	-3814
женое	-3815
лампы	-3816
ленда	-3817
точка	-3818
точку	-3819
▁Горо	-3820
▁Ияза	-3821
▁Теле	-3822
▁Ясам	-3823
Антоха	-3824
гуляла	-3825
гулять	-3826
дождём	-3827
домкир	-3828
есличё	-3829
завяза	-3830
минайо	-3831
плоцен	-3832
плываю	-3833
распят	-3834
спокой	-3835
трудом	-3836
ужевер	-3837
черный	-3838
▁Здесь	-3839
▁Чужая	-3840
▁Явижу	-3841
▁ищуху	-3842
Сбербан	-3843
всвоемо	-3844
другдру	-3845
другими	-3846
елётным	-3847
йнрядом	-3848
каквода	-3849
колёсах	-3850
машинку	-3851
мибылтя	-3852
ниодной	-3853
новИван	-3854
новнаво	-3855
новыхса	-3856
нонемои	-3857
норируя	-3858
ноулицы	-3859
нцуюпья	-3860
обычные	-3861
онбудет	-3862
оставит	-3863
оформле	-3864
палачом	-3865
перевес	-3866
перевод	-3867
плакать	-3868
поварав	-3869
поваром	-3870
подвече	-3871
помидор	-3872
поможет	-3873
попробу	-3874
приятие	-3875
пропали	-3876
простой	-3877
работаю	-3878
рамидру	-3879
ранжево	-3880
ребенку	-3881
рикавра	-3882
рнимоло	-3883
рявкафе	-3884
самолет	-3885
седыхпи	-3886
сенаина	-3887
скажуНу	-3888
скалимы	-3889
смертии	-3890
смотрит	-3891
советом	-3892
соседей	-3893
статься	-3894
сьвлучи	-3895
талотом	-3896
твзамми	-3897
тебеита	-3898
тканьсе	-3899
itor	-3900
брать	-3901
ерана	-3902
мирай	-3903
нашла	-3904
новыж	-3905
itorno	-3906
выепри	-3907
другна	-3908
ивдруг	-3909
лимоны	-3910
мыуста	-3911
нусамо	-3912
обидно	-3913
оттого	-3914
презре	-3915
светза	-3916
страна	-3917
терана	-3918
тостер	-3919
удочку	-3920
чегоон	-3921
▁Вподо	-3922
▁Вэтом	-3923
▁Сулыб	-3924
детскую	-3925
домойка	-3926
зеленый	-3927
каккома	-3928
красиво	-3929
меттого	-3930
ныхуста	-3931
ослепит	-3932
приехал	-3933
стновыж	-3934
толюдит	-3935
торогос	-3936
тьсямне	-3937
уравлей	-3938
фильмов	-3939
ходилпо	-3940
хотелбы	-3941
хотятпо	-3942
цаоказа	-3943
цахивок	-3944
цельяза	-3945
цепивши	-3946
цетемне	-3947
чегомои	-3948
чныйдым	-3949
чтоесть	-3950
шествий	-3951
щийлжец	-3952
щикаово	-3953
яживуто	-3954
ясьпосо	-3955
ятсямои	-3956
яхочуот	-3957
▁iPhone	-3958
▁Антоха	-3959
▁Апотом	-3960
▁Вампир	-3961
▁Вкраси	-3962
▁Вобщем	-3963
▁Вовсём	-3964
▁Выменя	-3965
▁Группа	-3966
▁Думала	-3967
▁Запоте	-3968
▁Ивдруг	-3969
▁Иволки	-3970
▁Имнежи	-3971
▁Иновое	-3972
▁Ипонял	-3973
▁Мнемаш	-3974
▁Мыстои	-3975
▁Напоро	-3976
▁Нафото	-3977
▁Началь	-3978
▁Нешути	-3979
▁Нибере	-3980
▁Новода	-3981
▁Ноесли	-3982
▁Носила	-3983
▁Ностою	-3984
▁Нотебе	-3985
▁Онпомо	-3986
▁Поигра	-3987
▁Помину	-3988
▁Помоей	-3989
▁Призра	-3990
▁Пропащ	-3991
▁Просто	-3992
▁Спасёт	-3993
▁Счасть	-3994
▁Тишину	-3995
▁Увидел	-3996
▁Чтонет	-3997
▁Чтослу	-3998
▁Яверну	-3999
емье	-4000
снах	-4001
ямог	-4002
вайся	-4003
воспо	-4004
держи	-4005
карту	-4006
кнему	-4007
семье	-4008
чьтем	-4009
ьяили	-4010
▁Папа	-4011
▁Снег	-4012
больно	-4013
брадор	-4014
венная	-4015
вернул	-4016
дажена	-4017
деревь	-4018
каждые	-4019
литров	-4020
льяраз	-4021
нулдом	-4022
офисва	-4023
пишешь	-4024
совсем	-4025
теменя	-4026
участо	-4027
чьютак	-4028
ядарил	-4029
▁Время	-4030
▁Скоро	-4031
безшума	-4032
быловсё	-4033
вайназа	-4034
еданопо	-4035
намирус	-4036
намприш	-4037
подноги	-4038
рдалака	-4039
смеётся	-4040
участок	-4041
шкукофе	-4042
▁Ветхий	-4043
▁Ивремя	-4044
▁Нуяпри	-4045
▁Совсем	-4046
▁Яглаза	-4047
▁Ялюблю	-4048
▁Янайду	-4049
▁Япойду	-4050
▁Япригр	-4051
▁Ятогда	-4052
▁ищупси	-4053
▁куплюд	-4054
▁потеря	-4055
▁собака	-4056
▁старый	-4057
SamsungA	-4058
iPhoneXR	-4059
авМоскве	-4060
асфальту	-4061
безвести	-4062
беззабот	-4063
биваявес	-4064
блюдения	-4065
братьяка	-4066
быдогнал	-4067
былидруз	-4068
валатебя	-4069
вдеревне	-4070
ведетпод	-4071
веибелые	-4072
весенний	-4073
вечернее	-4074
вечерпол	-4075
взглядом	-4076
водителя	-4077
воистори	-4078
войнадоб	-4079
вослепит	-4080
всегдапо	-4081
вспинуки	-4082
встречаю	-4083
вухлещей	-4084
вшейсяме	-4085
выйизнас	-4086
вётсянес	-4087
гаяогонь	-4088
гладковы	-4089
глоглаза	-4090
городпри	-4091
горошины	-4092
грудизме	-4093
дажемалы	-4094
дастсвою	-4095
детьдома	-4096
дляпортр	-4097
днаяпыль	-4098
дослушен	-4099
йоги	-4100
бассе	-4101
елюсь	-4102
плетё	-4103
солнц	-4104
эконо	-4105
▁Пере	-4106
▁Хват	-4107
елсума	-4108
жарзаг	-4109
ивсёже	-4110
костюм	-4111
открыл	-4112
путник	-4113
▁Ивотя	-4114
▁Следи	-4115
айпадбу	-4116
билетна	-4117
вМоскве	-4118
газовую	-4119
дляйоги	-4120
ебольше	-4121
здесьго	-4122
икостра	-4123
йсамнес	-4124
кдевкам	-4125
ключина	-4126
констру	-4127
нилипод	-4128
рыйснег	-4129
спатьне	-4130
ставить	-4131
столицы	-4132
язывать	-4133
▁Больше	-4134
▁Сэконо	-4135
▁Хорошо	-4136
балаинеж	-4137
думаючто	-4138
еледяной	-4139
естьбаня	-4140
естьвкар	-4141
естьплан	-4142
етответы	-4143
етсяогня	-4144
жарзагре	-4145
женерапо	-4146
женнаяна	-4147
жешьмнеЯ	-4148
зависает	-4149
запечата	-4150
заспиной	-4151
зачемпос	-4152
ислепота	-4153
итсядуша	-4154
итсялень	-4155
итьнепро	-4156
йдувкафе	-4157
казалась	-4158
каквгонг	-4159
каквосне	-4160
кекокаин	-4161
китёмные	-4162
кихгорах	-4163
ковнаших	-4164
койсидел	-4165
койчудес	-4166
колдунья	-4167
ктуристи	-4168
купиваид	-4169
курткубу	-4170
ладкомне	-4171
лаждаюсь	-4172
лекаться	-4173
лесазима	-4174
лесрядом	-4175
лижутмне	-4176
листобой	-4177
литолько	-4178
лсядомой	-4179
лсяизсил	-4180
машинупо	-4181
миметели	-4182
мобильбу	-4183
модбелый	-4184
моевовла	-4185
нажатьна	-4186
найдуивы	-4187
нанеделю	-4188
напротив	-4189
насветея	-4190
небывала	-4191
невесной	-4192
невидятс	-4193
недумать	-4194
нестарый	-4195
неумирай	-4196
нимлетом	-4197
ногиезна	-4198
нойлюбви	-4199
,27	-4200
бью	-4201
Leno	-4202
nder	-4203
авиа	-4204
джаз	-4205
сёжу	-4206
убью	-4207
чаян	-4208
▁Сил	-4209
бегом	-4210
вгоры	-4211
вчужо	-4212
едети	-4213
кусаю	-4214
ложат	-4215
▁Яана	-4216
Fender	-4217
Lenovo	-4218
второй	-4219
гахдля	-4220
гдемоя	-4221
емутак	-4222
етнедо	-4223
новомв	-4224
охрана	-4225
подлои	-4226
стоймо	-4227
▁Какмо	-4228
▁Найти	-4229
важными	-4230
вчудеса	-4231
выеавиа	-4232
джекрас	-4233
итсяему	-4234
кажется	-4235
назаказ	-4236
насемья	-4237
новсёжу	-4238
тотчаян	-4239
▁Кнесбы	-4240
Володьку	-4241
глянунас	-4242
есветито	-4243
неосторо	-4244
номветру	-4245
нонесмог	-4246
нопочему	-4247
нузимнюю	-4248
ныеглаза	-4249
огромным	-4250
онгрусти	-4251
оригинал	-4252
осеньвок	-4253
отмашины	-4254
педиатра	-4255
переезда	-4256
пецшколе	-4257
пилавзор	-4258
пимаимне	-4259
поверить	-4260
подсклад	-4261
помебели	-4262
помокрым	-4263
понакона	-4264
попросил	-4265
поступил	-4266
привезём	-4267
приходил	-4268
проектор	-4269
противно	-4270
прошлыми	-4271
прячется	-4272
расозлом	-4273
ресторан	-4274
рикзаулы	-4275
ровщиком	-4276
родушной	-4277
розытюль	-4278
русскому	-4279
рятхолод	-4280
силажена	-4281
скухотят	-4282
сладкиха	-4283
словнови	-4284
смартфон	-4285
ссажиста	-4286
стижения	-4287
стиралка	-4288
стиралок	-4289
столетия	-4290
стольная	-4291
стомдруж	-4292
студенту	-4293
такдолго	-4294
таксидоа	-4295
таяводка	-4296
тодругом	-4297
толькоми	-4298
удаленно	-4299
спря	-4300
утюг	-4301
Легко	-4302
инфор	-4303
крика	-4304
минус	-4305
пишет	-4306
серый	-4307
следы	-4308
уморя	-4309
▁Изму	-4310
▁Икри	-4311
▁Ктоя	-4312
▁Плав	-4313
▁Стой	-4314
LGOLED	-4315
бритой	-4316
ведьма	-4317
винова	-4318
дешево	-4319
дозоре	-4320
долечу	-4321
дурака	-4322
етжало	-4323
итодно	-4324
кудане	-4325
кушать	-4326
можешь	-4327
мульти	-4328
мыкупи	-4329
наведь	-4330
навсво	-4331
невклю	-4332
сбаней	-4333
стекля	-4334
тояжду	-4335
ужасно	-4336
шихтру	-4337
▁Ижена	-4338
▁Избра	-4339
▁Солне	-4340
▁Умира	-4341
бариста	-4342
всерьёз	-4343
двоката	-4344
колонка	-4345
лиздома	-4346
нойнапо	-4347
питмнев	-4348
планшет	-4349
поютвмо	-4350
пропала	-4351
строчки	-4352
такпохо	-4353
чилноги	-4354
▁Вовсех	-4355
▁Дооста	-4356
▁Заморя	-4357
▁Тыбыла	-4358
еранадом	-4359
новилось	-4360
нонельзя	-4361
подзаказ	-4362
скиевещи	-4363
усбивают	-4364
ходитпро	-4365
ходишьна	-4366
хпорбыла	-4367
чныйдень	-4368
чтопопро	-4369
чтотыуез	-4370
чтоэтота	-4371
чугунную	-4372
шахматам	-4373
шийГесер	-4374
шийминус	-4375
шнийдень	-4376
язателен	-4377
ямогзали	-4378
ятесразу	-4379
▁Mitorno	-4380
▁Атыулыб	-4381
▁Афрегат	-4382
▁Влогово	-4383
▁Водочку	-4384
▁Впилась	-4385
▁Впилось	-4386
▁Голосом	-4387
▁Грустно	-4388
▁Задождя	-4389
▁Игодапо	-4390
▁Измучен	-4391
▁Икаждый	-4392
▁Ирвутся	-4393
▁Колючий	-4394
▁Лишьона	-4395
▁Меняпри	-4396
▁Мненадо	-4397
▁Мненрав	-4398
▁Мнерады	-4399
кгиб	-4400
бнепо	-4401
стаял	-4402
шекпо	-4403
python	-4404
вполне	-4405
графии	-4406
иновое	-4407
митуда	-4408
ночной	-4409
соседу	-4410
фильтр	-4411
▁ОнВам	-4412
▁нужна	-4413
вернусь	-4414
взгляну	-4415
впереди	-4416
всемало	-4417
даленно	-4418
дорогем	-4419
дскомла	-4420
женские	-4421
зачемже	-4422
здорова	-4423
каксвою	-4424
кгибкий	-4425
коляску	-4426
комодбу	-4427
незнала	-4428
плохона	-4429
резинов	-4430
шекпоет	-4431
▁Аближе	-4432
▁Иближе	-4433
▁Кветру	-4434
▁Ножень	-4435
▁Спиной	-4436
войвмоей	-4437
динконец	-4438
етсятоже	-4439
ноябнепо	-4440
противен	-4441
ремишься	-4442
сломался	-4443
требенку	-4444
тьнакраю	-4445
▁Мыкогда	-4446
▁Натонки	-4447
▁Нахолод	-4448
▁Непосту	-4449
▁Новсёже	-4450
▁Ножница	-4451
▁Нокакой	-4452
▁Нунайду	-4453
▁Оннесош	-4454
▁Первыйи	-4455
▁Пожизни	-4456
▁Позимне	-4457
▁Позорис	-4458
▁Посмотр	-4459
▁Приказа	-4460
▁Протебя	-4461
▁Раньшея	-4462
▁Стогона	-4463
▁Теплоем	-4464
▁Тостены	-4465
▁Тыоткры	-4466
▁Хочется	-4467
▁Чтонрав	-4468
▁Янеусну	-4469
▁Яникому	-4470
▁Ясмотрю	-4471
▁Ястобой	-4472
▁Яустала	-4473
▁ищугита	-4474
▁ищудеше	-4475
▁ищуфото	-4476
▁куплюрю	-4477
▁куплюск	-4478
▁куплюче	-4479
▁ремонто	-4480
альвеолах	-4481
бедылюбой	-4482
беззалога	-4483
белыйклин	-4484
бербанкне	-4485
битыитело	-4486
большуюпо	-4487
ботамозга	-4488
бувирядом	-4489
ватретьес	-4490
ватькомне	-4491
вершинами	-4492
взорвувсе	-4493
внебезвез	-4494
водителем	-4495
воисторий	-4496
всегоодна	-4497
всехсторо	-4498
вытащитьи	-4499
обман	-4500
▁Нуты	-4501
замена	-4502
ятакой	-4503
▁Скажу	-4504
инесмог	-4505
прошлое	-4506
рассказ	-4507
янемогу	-4508
▁Куришь	-4509
Володька	-4510
гамиснег	-4511
изРоссии	-4512
колдунье	-4513
комАльпы	-4514
ноутбука	-4515
приятель	-4516
тоотноше	-4517
цузского	-4518
ётрасска	-4519
▁Атеперь	-4520
▁Большие	-4521
▁Ивдомел	-4522
▁Ильётся	-4523
▁Хватает	-4524
географии	-4525
глазахили	-4526
дваблизне	-4527
дернускор	-4528
детьследы	-4529
дляотноше	-4530
днаявойна	-4531
добрыйГес	-4532
достанешь	-4533
едыМосква	-4534
елишьтень	-4535
ельныймиг	-4536
ердляводы	-4537
етакикида	-4538
жнаБодиХо	-4539
закрылась	-4540
здесьжить	-4541
зорвалось	-4542
игнорируя	-4543
итесрочно	-4544
итехникой	-4545
ияеёброшу	-4546
какядарил	-4547
канаколду	-4548
касигарет	-4549
кбанкомат	-4550
квадратов	-4551
кидвачаса	-4552
коекресло	-4553
конникмой	-4554
кофеварка	-4555
кроссовки	-4556
ксебезама	-4557
ласьдрака	-4558
латебянет	-4559
леюниочём	-4560
лимоновый	-4561
лобныйуро	-4562
льбедуеще	-4563
людинаули	-4564
менявпуть	-4565
мимебелью	-4566
минаниявы	-4567
министром	-4568
митемными	-4569
мнедорого	-4570
мойзвезды	-4571
мониторбу	-4572
моялюбовь	-4573
мывстрети	-4574
наЛимония	-4575
напополам	-4576
наямашина	-4577
незнакома	-4578
нехватает	-4579
нехочется	-4580
нилзамной	-4581
нныйхолод	-4582
нопонемно	-4583
ноутбуков	-4584
ношалегка	-4585
ноянехочу	-4586
нужнаняня	-4587
нутыдаешь	-4588
ныеуслуги	-4589
ныйконвой	-4590
онпобедит	-4591
оченьрано	-4592
пельсинов	-4593
пластинки	-4594
повечерам	-4595
поистории	-4596
помесячно	-4597
помещений	-4598
поремонту	-4599
.1,	-4600
JBL	-4601
TCL	-4602
ЕГЭ	-4603
2107	-4604
5.1,	-4605
Levi	-4606
Люсь	-4607
ЯДОМ	-4608
лбрю	-4609
трёх	-4610
▁АВТ	-4611
▁Газ	-4612
Дозор	-4613
батва	-4614
будто	-4615
жкумы	-4616
знобы	-4617
ияопя	-4618
йпоря	-4619
лучше	-4620
милбы	-4621
нервы	-4622
перёд	-4623
слёзы	-4624
тарём	-4625
шагаю	-4626
▁Возь	-4627
▁Сану	-4628
Ночной	-4629
вайфай	-4630
вянные	-4631
ерьера	-4632
етвжар	-4633
заокош	-4634
иктебе	-4635
ипочем	-4636
искрят	-4637
лконом	-4638
мощные	-4639
опухли	-4640
паркет	-4641
пойдём	-4642
ражпят	-4643
физике	-4644
▁Имерк	-4645
▁Иначн	-4646
будтопо	-4647
дохнуть	-4648
зелразд	-4649
кофелат	-4650
нажатый	-4651
розетки	-4652
ужинать	-4653
чтосорва	-4654
▁Азначит	-4655
▁Мойпоря	-4656
▁Мояшиза	-4657
гладилбрю	-4658
кофелатте	-4659
кутвперёд	-4660
наянтарём	-4661
паютслёзы	-4662
пригласил	-4663
пришёлсам	-4664
продавцом	-4665
пропадать	-4666
пускается	-4667
работницу	-4668
разрушено	-4669
разъятыми	-4670
рапотолоч	-4671
распятыми	-4672
рейпотеря	-4673
ремонтсве	-4674
ремякурок	-4675
репетитор	-4676
роксквозь	-4677
рутвзамми	-4678
рюкотенка	-4679
санывсема	-4680
сбалконом	-4681
своимярки	-4682
сзакутало	-4683
силауменя	-4684
сковороду	-4685
смертибыл	-4686
спокойнос	-4687
спробегом	-4688
сразуврай	-4689
срединочи	-4690
сружьёмна	-4691
стехникой	-4692
стобойпос	-4693
стробоско	-4694
студентам	-4695
студентке	-4696
стукуменя	-4697
сумасошла	-4698
такгладко	-4699
бзнал	-4700
горим	-4701
етшам	-4702
соток	-4703
химии	-4704
▁Руга	-4705
indows	-4706
Сергее	-4707
водицы	-4708
гуашью	-4709
давшее	-4710
еслова	-4711
иласки	-4712
инезам	-4713
мазовы	-4714
мутени	-4715
находу	-4716
уютная	-4717
юкожей	-4718
▁Вотон	-4719
▁Иснам	-4720
▁Такое	-4721
Redmond	-4722
SeriesS	-4723
абыкого	-4724
вазудля	-4725
волкане	-4726
гаяцель	-4727
дазовет	-4728
елвечно	-4729
загадка	-4730
идиотка	-4731
какодин	-4732
кигорят	-4733
начасах	-4734
нетужит	-4735
помните	-4736
рванево	-4737
стиганг	-4738
хреново	-4739
шиеруки	-4740
▁Нозлой	-4741
авданный	-4742
валяться	-4743
водопада	-4744
вызывают	-4745
датакому	-4746
двесемьи	-4747
кактытут	-4748
кпримеру	-4749
лпаспорт	-4750
меетрука	-4751
нисгорим	-4752
рамазовы	-4753
▁Windows	-4754
▁Ругаешь	-4755
Сергеевич	-4756
длясъемок	-4757
емдвореко	-4758
кивПольше	-4759
ныйзвонок	-4760
отыиласки	-4761
работатьв	-4762
терапевта	-4763
толькохло	-4764
тыконечно	-4765
тьсначала	-4766
тьсяможет	-4767
хотяттепл	-4768
цахтолько	-4769
цебезжало	-4770
цетемнело	-4771
ческийлев	-4772
чинатогда	-4773
чьнесмогу	-4774
шатьпесни	-4775
электрика	-4776
этобыстро	-4777
этотберег	-4778
ясьпососу	-4779
▁SamsungA	-4780
▁Аякаждый	-4781
▁Былконец	-4782
▁Вкоторых	-4783
▁Возьмимо	-4784
▁Вороназа	-4785
▁Всенапро	-4786
▁Выцветша	-4787
▁Жизньино	-4788
▁Журавлей	-4789
▁Значитвс	-4790
▁Иразруше	-4791
▁Многопод	-4792
▁Накрутых	-4793
▁Настанет	-4794
▁Новообще	-4795
▁Новскоре	-4796
▁Нонельзя	-4797
▁Нопочему	-4798
▁Норабота	-4799
шпица	-4800
▁Ждем	-4801
▁суши	-4802
Gibson	-4803
inUSSR	-4804
баркас	-4805
гоокна	-4806
улицам	-4807
ыйплед	-4808
▁Avito	-4809
▁Всёиз	-4810
▁Икхок	-4811
▁Отдви	-4812
▁Утром	-4813
▁Храни	-4814
Квентин	-4815
блендер	-4816
вгараже	-4817
выпосмо	-4818
офисное	-4819
пляскаи	-4820
прикинь	-4821
промакс	-4822
прыгать	-4823
севэтом	-4824
скатами	-4825
стомато	-4826
сяматом	-4827
цеяркое	-4828
швейную	-4829
ыйномер	-4830
▁Бесшум	-4831
▁Растут	-4832
▁Стирая	-4833
▁Яндекс	-4834
▁ищушеф	-4835
беденный	-4836
близости	-4837
каквигру	-4838
матрасбу	-4839
подгорою	-4840
стностью	-4841
тегодома	-4842
трисемьи	-4843
▁Иневижу	-4844
▁Множест	-4845
▁Нетусил	-4846
▁Сигарет	-4847
▁ищупека	-4848
ваэропорт	-4849
влюбилась	-4850
внутриисо	-4851
всеивходы	-4852
картинума	-4853
оставляет	-4854
чемрискую	-4855
чтотыпоту	-4856
▁Ночьютак	-4857
▁Онсамыйс	-4858
▁Поаллеям	-4859
▁Поскольз	-4860
▁Потёмным	-4861
▁Располза	-4862
▁Решилипо	-4863
▁Сердцелу	-4864
▁Сияетшам	-4865
▁Сквозьту	-4866
▁Съестьме	-4867
▁Тыничего	-4868
▁Ядавлюсь	-4869
▁Якаленда	-4870
▁Яподумал	-4871
▁ЯскажуНу	-4872
▁Яхотелбы	-4873
▁доставка	-4874
▁ищукошку	-4875
▁ищупарня	-4876
▁ищуплиту	-4877
▁ищустоли	-4878
▁квартира	-4879
▁куплютре	-4880
▁новыйкул	-4881
▁сломался	-4882
авиновнаво	-4883
болталотом	-4884
британскую	-4885
бунедорого	-4886
былнасвете	-4887
былотрудно	-4888
вдальлетит	-4889
векнепойду	-4890
вечерползу	-4891
взеленомпи	-4892
вмоейтележ	-4893
вообщеблин	-4894
вообщежива	-4895
вошёлвслед	-4896
всемдорога	-4897
всенетакуж	-4898
всехсторон	-4899
ктоучи	-4900
дийУкуп	-4901
дляпуте	-4902
комбайн	-4903
насморк	-4904
рабочую	-4905
солнцев	-4906
сямысли	-4907
▁Глотка	-4908
▁Лесник	-4909
▁Телоис	-4910
▁Умоего	-4911
▁Ясижуи	-4912
▁Яхочук	-4913
буйсдела	-4914
гонабегу	-4915
застолом	-4916
ивыпьюча	-4917
ипесенне	-4918
кладовку	-4919
мозговая	-4920
мокдверь	-4921
наверное	-4922
нетместа	-4923
ноонназы	-4924
пешилимы	-4925
ребристы	-4926
сервиспо	-4927
скажитем	-4928
сталокак	-4929
старыеза	-4930
тдетский	-4931
эропорта	-4932
▁Верьмне	-4933
▁Ияпромо	-4934
▁Насунос	-4935
▁Ноятебе	-4936
▁Отпечат	-4937
▁Силболь	-4938
Завулониз	-4939
вкрасавца	-4940
вятсягубы	-4941
когосбере	-4942
лечитдуши	-4943
лишьстрах	-4944
мясорубку	-4945
насвадьбу	-4946
несдаётся	-4947
нипросвет	-4948
нуладнона	-4949
отступить	-4950
снегопада	-4951
сомненияс	-4952
ступленью	-4953
укогоесть	-4954
▁Когдамне	-4955
▁Нашобраз	-4956
▁Несусьна	-4957
▁Нуатымне	-4958
▁Раннимут	-4959
▁Тыраньше	-4960
▁ищуключи	-4961
бнесбиться	-4962
впереездес	-4963
вспоминайо	-4964
встречатьи	-4965
выеприборы	-4966
гаиповсюду	-4967
деревянные	-4968
держименяф	-4969
джекрассел	-4970
дизайнером	-4971
дийУкупник	-4972
длярыбалки	-4973
другдругаи	-4974
дскомпламе	-4975
думатьочем	-4976
дуяпоулице	-4977
ельныхснах	-4978
есникаяноч	-4979
етыегонена	-4980
здесьспать	-4981
зыватьраны	-4982
ибрыкаться	-4983
имневесело	-4984
имновыймир	-4985
инезаметил	-4986
инесказала	-4987
итнамдвоим	-4988
каккрасиво	-4989
какпонотам	-4990
каксделать	-4991
каосталась	-4992
каплидождя	-4993
квартирпод	-4994
кидаютрозы	-4995
когдараспи	-4996
кошкувхоро	-4997
кроваткубу	-4998
ксебедомой	-4999
весьмир	-5000
дыхания	-5001
еттрава	-5002
русским	-5003
слышишь	-5004
▁Парень	-5005
▁Чёжеты	-5006
Тарнтино	-5007
дымитраз	-5008
напроект	-5009
непредла	-5010
обрадует	-5011
плаванию	-5012
смеяться	-5013
чуветрам	-5014
▁Адальше	-5015
▁Билетво	-5016
▁Звеняще	-5017
▁Исоздал	-5018
▁Чувству	-5019
ваютпирна	-5020
длясъёмок	-5021
добермана	-5022
желоранен	-5023
жизненный	-5024
земныйход	-5025
литрамваи	-5026
мачерепно	-5027
мивоздуха	-5028
насапогах	-5029
негреюпио	-5030
нотебятам	-5031
ныхгостей	-5032
нюхатьдым	-5033
полставки	-5034
скресения	-5035
траличего	-5036
▁Надлесом	-5037
▁Непомнят	-5038
▁Яходилпо	-5039
вкомплекте	-5040
вуглахпаук	-5041
гаетдобрым	-5042
гдавыпуска	-5043
геостались	-5044
зимниешины	-5045
ламнедвери	-5046
летомвгоры	-5047
лисьстобою	-5048
льётсявода	-5049
мануплываю	-5050
менеджером	-5051
местолампы	-5052
метрорядом	-5053
мнехочется	-5054
многоденег	-5055
можносказа	-5056
мойхороший	-5057
мочибежать	-5058
нахквартир	-5059
нглийского	-5060
невыдумать	-5061
ненапрасно	-5062
нескрылсяя	-5063
никхороший	-5064
новомвзоре	-5065
ногиезнают	-5066
ногоопасна	-5067
нужноехать	-5068
нутьсяхочу	-5069
нёшьсяиска	-5070
онаповсюду	-5071
отвернётся	-5072
официантом	-5073
падаетснег	-5074
перелётным	-5075
письменный	-5076
плетётузор	-5077
пнувладоши	-5078
пожелаймне	-5079
пойдукнему	-5080
полныйдень	-5081
почтиновая	-5082
почтиновый	-5083
презрением	-5084
привезусам	-5085
птицамвкли	-5086
радневного	-5087
руднонести	-5088
рукабойцов	-5089
самолетссе	-5090
сантехнике	-5091
селволнами	-5092
сзеркалами	-5093
сказаноине	-5094
скогоязыка	-5095
скорееуйти	-5096
согрейменя	-5097
средиживот	-5098
старыйшкаф	-5099
диаметр	-5100
▁Былзам	-5101
▁Колоть	-5102
▁Ятропи	-5103
курьером	-5104
сголовою	-5105
тиустраи	-5106
▁Пришёлк	-5107
▁Телефон	-5108
брендовый	-5109
голосисты	-5110
елюбнымна	-5111
мороженое	-5112
подружкой	-5113
рослисвои	-5114
чноиглупо	-5115
шерстяной	-5116
этимсправ	-5117
▁Воттакая	-5118
▁Гдеярисо	-5119
▁Нажрался	-5120
▁Новсёэто	-5121
▁Ожидание	-5122
▁Сердцемо	-5123
▁Тамвсёне	-5124
бидетнеобы	-5125
ватапрокля	-5126
децникакне	-5127
длядевочки	-5128
дляобщения	-5129
испанского	-5130
кардиолога	-5131
липодокном	-5132
мяимподпою	-5133
немецкуюов	-5134
новыхсамых	-5135
ныйдорогой	-5136
пляскаидет	-5137
рамидружит	-5138
солнцанема	-5139
тебеитаким	-5140
теперьтыуш	-5141
тогорыстен	-5142
толькоживи	-5143
тыбудешьра	-5144
тымбезвина	-5145
хотябыодин	-5146
хочешьидти	-5147
цельдалека	-5148
чемплатить	-5149
чтозафигня	-5150
чтоприехал	-5151
шковдесять	-5152
щикаовощей	-5153
яестьновые	-5154
▁Аещекраси	-5155
▁Врядлипой	-5156
▁Всегдапод	-5157
▁Всеначина	-5158
▁Вчёмжепри	-5159
▁Егопапины	-5160
▁Еготыкуша	-5161
▁Ждемлетав	-5162
▁Замыкание	-5163
▁Инаработе	-5164
▁Крыльяраз	-5165
▁Мнедамоло	-5166
▁Мнеобидно	-5167
▁Моейогром	-5168
▁Можетбыть	-5169
▁Мывлюбовь	-5170
▁МыизРосси	-5171
▁Мыпрожили	-5172
▁Неждименя	-5173
▁Нисколько	-5174
▁Новысокая	-5175
▁Нонадорог	-5176
▁Носколько	-5177
▁Нузачемже	-5178
▁Нунадокак	-5179
▁Нучтожеты	-5180
▁Обернулся	-5181
▁Однасемья	-5182
▁Папаскоро	-5183
▁Парнимоло	-5184
▁Плавныхвё	-5185
▁Поверьмне	-5186
▁Потерянна	-5187
▁Простится	-5188
▁Слезыутри	-5189
▁Словнокто	-5190
▁Твоядочьи	-5191
▁Тыконечно	-5192
▁Чемдорожу	-5193
▁Чтомешают	-5194
▁Чужаястая	-5195
▁Яегопочти	-5196
▁Ялюблюслу	-5197
▁Янивчемне	-5198
▁ищуактера	-5199
тооткрыл	-5200
▁Яананас	-5201
грудизмею	-5202
▁Второгос	-5203
▁Вцепивши	-5204
▁Ибилетна	-5205
▁Пропащая	-5206
▁Сдавайся	-5207
берегахдля	-5208
дляседыхпи	-5209
дляфильмов	-5210
дослушенно	-5211
ивдругпоки	-5212
каждыепять	-5213
каккоманда	-5214
когданашла	-5215
нусамолёта	-5216
рикаврагов	-5217
тканьсерая	-5218
яживутобою	-5219
▁Вкрасивых	-5220
▁Ивотястою	-5221
▁Новдругна	-5222
▁Согромным	-5223
▁ищуаренду	-5224
▁ищубухгал	-5225
▁ищугидапо	-5226
▁ищудрузей	-5227
▁ищуинстру	-5228
▁ищукостюм	-5229
▁ищуповара	-5230
▁ищупостав	-5231
▁ищуспециа	-5232
▁ищустоляр	-5233
▁ищустуден	-5234
▁ищуюриста	-5235
▁куплюавто	-5236
▁куплюлыжи	-5237
▁куплюрези	-5238
▁куплючасы	-5239
▁новаялюст	-5240
▁новаяпечь	-5241
▁новаяпосу	-5242
▁новыйутюг	-5243
▁сдамместо	-5244
▁сдаюгараж	-5245
▁срочноищу	-5246
▁телевизор	-5247
diaboloesta	-5248
Небыватьпре	-5249
Нужнопонять	-5250
Опаснаязона	-5251
абыкогонебе	-5252
английскому	-5253
аютпунктиры	-5254
бедазабедой	-5255
бесныекраны	-5256
будетбольно	-5257
быловсёунас	-5258
ваетсяжизнь	-5259
важныминуты	-5260
возвратился	-5261
вообщезаход	-5262
вшейсямечте	-5263
выжженнаяна	-5264
гдеестьсвет	-5265
гкомоивоспо	-5266
глянунасело	-5267
горячаявода	-5268
графанамеро	-5269
даешьвообще	-5270
даженарошно	-5271
дляпортрета	-5272
долгосрочно	-5273
долгоуснуть	-5274
дымитразлом	-5275
ебезнадежно	-5276
ебылизвонки	-5277
езвонкопоют	-5278
елименясума	-5279
енебоизчужо	-5280
етнедосмеха	-5281
жанаапельси	-5282
жедуракябыл	-5283
женасбежала	-5284
жеябудуодин	-5285
жизнистанет	-5286
жизньвнутри	-5287
занимбежать	-5288
занятиядома	-5289
здесьгорька	-5290
здоровенная	-5291
информатике	-5292
исталприста	-5293
итедочегоон	-5294
иялюбилтебя	-5295
кататьсямне	-5296
кзактуристи	-5297
ковназавтра	-5298
ковнашихног	-5299
резиновую	-5300
спрячьтем	-5301
бытьвинова	-5302
дубезкрика	-5303
ияопятьиду	-5304
нажатыйвов	-5305
стеклянную	-5306
янемогууси	-5307
▁Ктоятакой	-5308
XboxSeriesS	-5309
НочнойДозор	-5310
ОМОЙКАРЯДОМ	-5311
Работамозга	-5312
делаешьЛюсь	-5313
жнаБодиХоли	-5314
коймостовой	-5315
кольжелаешь	-5316
комодбуторг	-5317
композитора	-5318
компьютеров	-5319
конструктор	-5320
коробкаесть	-5321
ктоучилсявс	-5322
ласьипадает	-5323
ласьнаулице	-5324
лечуикрутиз	-5325
лимономдотя	-5326
машинуВАЗбу	-5327
менябросишь	-5328
менявпустил	-5329
меняетзакон	-5330
молодоженам	-5331
мультиварка	-5332
мыкупилибан	-5333
мыусталиоба	-5334
нампришлось	-5335
ндшафтеменя	-5336
небутакнадо	-5337
невидятснов	-5338
нибудьповод	-5339
ниедоговора	-5340
никуниктоне	-5341
нитьсявклин	-5342
ногунагрудь	-5343
номнераспла	-5344
ноулицыждут	-5345
ночнойдозор	-5346
ночныесмены	-5347
ночьюнемогу	-5348
нькиженские	-5349
офисваренду	-5350
официанткой	-5351
понаконаплю	-5352
поулицеодин	-5353
разбиваявес	-5354
раинтерьера	-5355
рымсловомон	-5356
сдаюкомнату	-5357
сигареточку	-5358
скоровыраст	-5359
скуюколяску	-5360
словновирус	-5361
смотрювчужо	-5362
снеграстаял	-5363
сомнойрядом	-5364
спатьнедают	-5365
средидрузей	-5366
старуюкнигу	-5367
стигангрены	-5368
столистулья	-5369
тадляпомощи	-5370
трёхдверный	-5371
убьюсоседей	-5372
улицамлетит	-5373
хочетсяпить	-5374
цаоказались	-5375
чновсевэтом	-5376
чтопоступил	-5377
чторейснеот	-5378
чтоэтотакое	-5379
явезукокаин	-5380
ялюблювесну	-5381
▁Адлязвезды	-5382
▁Аяшёлдомой	-5383
▁Больнестер	-5384
▁Бываешьнем	-5385
▁Быловесело	-5386
▁Внирванево	-5387
▁Вовсёмвино	-5388
▁Вэтотрудно	-5389
▁Годыпрошли	-5390
▁Горятхолод	-5391
▁Емувсемало	-5392
▁Здравствуй	-5393
▁Злобныйуро	-5394
▁ИвановИван	-5395
▁Ивзеркалах	-5396
▁Илимнеприд	-5397
▁Ималенькая	-5398
▁Иновоеутро	-5399
▁Утромтыст	-5400
дковыйномер	-5401
стоматолога	-5402
▁Итывстреча	-5403
▁Иявезусвою	-5404
▁Какмолчани	-5405
▁Какойчудес	-5406
▁Корочетыне	-5407
▁Лишьголост	-5408
▁Мигомодним	-5409
▁Мыпьемчайв	-5410
▁Натеплоцен	-5411
▁Новаяжизнь	-5412
▁Ногамиснег	-5413
▁Нонашгерой	-5414
▁Нояработаю	-5415
▁Опоздавшее	-5416
▁Отдвижения	-5417
▁Очкитёмные	-5418
▁Перелетные	-5419
▁Полковника	-5420
▁Поминутамо	-5421
▁Попустоймо	-5422
▁Привидений	-5423
▁Радиоточка	-5424
▁Расстаться	-5425
▁Сбербанкне	-5426
▁Слунойнапо	-5427
▁Толькоменя	-5428
▁Тостеныгор	-5429
▁Триобычные	-5430
▁Труднадоро	-5431
▁Тыжевидишь	-5432
▁Тынеможешь	-5433
▁Тынехочешь	-5434
▁Увиделтебя	-5435
▁Умиралидав	-5436
▁Утродоброе	-5437
▁Хочешьморе	-5438
▁Ягладилбрю	-5439
▁Язалимоном	-5440
▁Ямаленькая	-5441
▁Япригрелна	-5442
▁автостекло	-5443
▁ищудетскую	-5444
▁ищудешёвый	-5445
▁ищудизайне	-5446
▁ищуперевод	-5447
▁ищупылесос	-5448
▁ищухирурга	-5449
▁куплюковёр	-5450
▁куплюлодку	-5451
▁куплюплиту	-5452
▁куплюцветы	-5453
▁новаякухня	-5454
▁новаяплита	-5455
▁новыйайфон	-5456
▁новыйковёр	-5457
▁продамшкаф	-5458
▁продаюстул	-5459
бассейнрядом	-5460
беспроводные	-5461
билвурдалака	-5462
билетывтеатр	-5463
былоспасение	-5464
вПодмосковье	-5465
ветствуютвсе	-5466
взеленомсаду	-5467
водицымнедай	-5468
войвмоейголо	-5469
волканекорми	-5470
вслухрассказ	-5471
вспинукинжал	-5472
выпосмотрите	-5473
газоваяплита	-5474
гарантияесть	-5475
гдемояголова	-5476
графикгибкий	-5477
дамраскатами	-5478
дернускорнем	-5479
дляотношений	-5480
домкирпичный	-5481
досихпорбыла	-5482
думаючтотоже	-5483
еледянойзимы	-5484
емдворекошки	-5485
емновомплаще	-5486
емутакстрого	-5487
ереговылечил	-5488
есветитопять	-5489
ешьрассветза	-5490
жарзагребать	-5491
журналахсчит	-5492
закрывайназа	-5493
запечатанный	-5494
игройвдурака	-5495
идётвойнадоб	-5496
идётисмеётся	-5497
изрыгаяогонь	-5498
икапаютслёзы	-5499
ислепотаволо	-5500
итсянашгерой	-5501
итьнепросили	-5502
иязнаюобэтом	-5503
каквальбомах	-5504
кдевкампойду	-5505
кдляноутбука	-5506
кирезвыевпля	-5507
ключинаруках	-5508
компьютерное	-5509
кусающийлжец	-5510
лававихкрови	-5511
легапопросил	-5512
летелавтурби	-5513
летелинаведь	-5514
лимоновыйсад	-5515
лимонынавысо	-5516
литолькосиги	-5517
любовьистрел	-5518
миребушующем	-5519
можетбытьран	-5520
моменткокаин	-5521
нажатьнаплей	-5522
невключается	-5523
невозможного	-5524
непредлагать	-5525
неёоборвётся	-5526
ниоднойзнако	-5527
нныйнебесами	-5528
новкитрамвая	-5529
нонемеетрука	-5530
ночныебольше	-5531
ныйподдождём	-5532
отдамкотенка	-5533
офтальмолога	-5534
питмневгрудь	-5535
пическомкино	-5536
поваромвкафе	-5537
подлоипросто	-5538
рапотолочная	-5539
ремонтванной	-5540
ремонтсвежий	-5541
риставгруппу	-5542
розытюльпаны	-5543
рыйснегпадал	-5544
рьперевернул	-5545
сердцеврядли	-5546
силынайдуивы	-5547
скажуЗдорово	-5548
смертиилюбви	-5549
смотркартины	-5550
стомудаленно	-5551
товзорвалось	-5552
убежализдома	-5553
ужеверноневс	-5554
утдажедеревь	-5555
французского	-5556
хорошимлюдям	-5557
хотьихочется	-5558
чтопопросишь	-5559
ятвоёвзгляну	-5560
▁Аизнашихтру	-5561
▁Антохауспел	-5562
▁Ачтоегождёт	-5563
▁Аятанцуюпья	-5564
▁Бросилажена	-5565
▁Будькакдома	-5566
▁Былконецдня	-5567
▁Врядлибудет	-5568
▁Городскомла	-5569
▁Группакрови	-5570
▁Девкигуляют	-5571
▁Ждутегодома	-5572
▁Ивсенасвете	-5573
▁Иждётотчаян	-5574
▁Ижестомдруж	-5575
▁Икхоккеисту	-5576
▁Итреснулмир	-5577
▁Иялюбилтебя	-5578
▁Лесниксидел	-5579
▁Лишьоднаона	-5580
▁Мнепротивно	-5581
▁Наальвеолах	-5582
▁Налинииогня	-5583
▁Насзакутало	-5584
▁Непоступало	-5585
▁НодобрыйГес	-5586
▁Нонепоможет	-5587
▁Нопришёлсам	-5588
▁Ностоюочень	-5589
▁Ночькоротка	-5590
▁Окнаянтарём	-5591
▁Очемпоютвмо	-5592
▁Победылюбой	-5593
▁Поулицеидуя	-5594
▁Поулицеодин	-5595
▁Рядомсметро	-5596
▁Санузелразд	-5597
▁Скоровыходы	-5598
▁Солнцеяркое	-5599
▁Старикзаулы	-5600
▁Сулыбкойдоб	-5601
▁Сэкономилбы	-5602
▁Телоисполня	-5603
▁Теплоеместо	-5604
▁Хочешьмузык	-5605
▁Чторейснеот	-5606
▁Яидупоулице	-5607
▁Яискалатебя	-5608
▁ЯндексЕдане	-5609
▁Япоасфальту	-5610
▁ищуадвоката	-5611
▁ищуводителя	-5612
▁ищулогопеда	-5613
▁ищупарикмах	-5614
▁ищутаксидоа	-5615
▁ищууборщицу	-5616
▁куплюджинсы	-5617
▁куплюковрик	-5618
▁куплюплатье	-5619
▁куплюроутер	-5620
▁куплюсамока	-5621
▁куплюстарый	-5622
▁куплюстулья	-5623
▁куплюудочку	-5624
▁куплюшкафбу	-5625
▁новыйроутер	-5626
▁новыйтостер	-5627
▁новыйфильтр	-5628
▁нуженмастер	-5629
▁нужнапомощь	-5630
▁срочнонужен	-5631
▁холодильник	-5632
Друзьяхотятпо	-5633
беспокоитодно	-5634
бритойкомнате	-5635
будтопоеларжа	-5636
былидрузьяили	-5637
вазудляцветов	-5638
веибелыестены	-5639
веритьвчудеса	-5640
встречуветрам	-5641
всёмоказалась	-5642
вцентреМосквы	-5643
вцентрегорода	-5644
выеавиабилеты	-5645
вётсянесладко	-5646
гдебыямогзали	-5647
дажемалыедети	-5648
дорогемнесним	-5649
доставканочью	-5650
елюбнымнаужин	-5651
желораненвбою	-5652
жизненныйплан	-5653
зависаетчасто	-5654
землелишьтень	-5655
игнорируяменя	-5656
икофепротивен	-5657
иктебедоплыву	-5658
инародпростой	-5659
инесмогразгля	-5660
итсяемуподкар	-5661
ищусдавнихпор	-5662
какядарилтебе	-5663
канаколдуймне	-5664
картинумаслом	-5665
клетчатыйплед	-5666
койсиделсутра	-5667
кухняподзаказ	-5668
лижутмнеглаза	-5669
лизсынаАнтона	-5670
лимонибудурад	-5671
междупрошлыми	-5672
мертьнекрасна	-5673
микроволновая	-5674
мливатьволков	-5675
нежалеюниочём	-5676
незапускается	-5677
неосторожного	-5678
неоткрывается	-5679
нехочуставить	-5680
нибудьзаэтова	-5681
нилиподростка	-5682
ниязавязывать	-5683
ночамитемными	-5684
онгрустилнепо	-5685
онзнаетответы	-5686
оставитвпокое	-5687
охнесладкомне	-5688
подвечеражпят	-5689
полнешийминус	-5690
помокрымлужам	-5691
программистом	-5692
ранжевомплаще	-5693
розеткиискрят	-5694
скажитемнекто	-5695
скийвелосипед	-5696
соловушекпоет	-5697
срединочизавы	-5698
ссажистанадом	-5699
старыезазнобы	-5700
толькодевушке	-5701
толькорусским	-5702
уменяестьплан	-5703
ходишьнакухню	-5704
холодильникбу	-5705
холодильников	-5706
чторазвелаего	-5707
чтотыуезжаешь	-5708
электрическая	-5709
электрическую	-5710
явыбилсяизсил	-5711
яскоровернусь	-5712
ятакойжекакон	-5713
яуженегреюпио	-5714
▁Амороксквозь	-5715
▁Впарикмахерс	-5716
▁Времясмотрит	-5717
▁Всехотяттепл	-5718
▁Всёизчегомои	-5719
▁Заморямиесть	-5720
▁Звезднаяпыль	-5721
▁Ильётсякровь	-5722
▁Именноонназы	-5723
▁Имеркнетсвет	-5724
▁ИпонялАнтоха	-5725
▁Иязайдувкафе	-5726
▁Кветруивсёже	-5727
▁Когданачасах	-5728
▁Колотьустала	-5729
▁Лёгкиеопухли	-5730
▁Менявстречаю	-5731
▁Мненехватает	-5732
▁Мояшизазнает	-5733
▁Мягкоекресло	-5734
▁Навсевопросы	-5735
▁Найтипопробу	-5736
▁Настанетдень	-5737
▁Ненажатыйвов	-5738
▁Непомнятслов	-5739
▁Нешутисомной	-5740
▁Ноневсегдапо	-5741
▁Нунайдукакой	-5742
▁Поулицеодиня	-5743
▁Присмертибыл	-5744
▁Пустыегорода	-5745
▁Пустыепоезда	-5746
▁Пустьэтотмир	-5747
▁Сердцебьется	-5748
▁Силбольшенет	-5749
▁Следилзамной	-5750
▁Тебяокружают	-5751
▁Тыбыламолода	-5752
▁Хотьихочется	-5753
▁Хочешьзаокош	-5754
▁Чтослучилось	-5755
▁Явижуцельяза	-5756
▁Ястобойгулял	-5757
▁автосервиспо	-5758
▁ищупсихолога	-5759
▁ищухудожника	-5760
▁ищуэлектрика	-5761
▁куплюайпадбу	-5762
▁куплюдиванбу	-5763
▁куплюколонки	-5764
▁куплюкомодбу	-5765
▁куплюпланшет	-5766
▁куплюшвейную	-5767
▁новаяколонка	-5768
▁новаялампана	-5769
▁новаястираль	-5770
▁новыйблендер	-5771
▁новыймонитор	-5772
▁сдамдомуморя	-5773
▁сдамкладовку	-5774
▁собакапотеря	-5775
▁срочнопродаю	-5776
большуюповозку	-5777
бьютсягорошины	-5778
валатебягуашью	-5779
вдеревненалето	-5780
вечернеесальто	-5781
витринятакпохо	-5782
датакомусоседу	-5783
деньдругаяцель	-5784
дляпутешествий	-5785
дозорадневного	-5786
елвечнозеленый	-5787
заспинойкокаин	-5788
ивсталитрамваи	-5789
ипесеннепишешь	-5790
ипочемусбивают	-5791
квартирподключ	-5792
квартирууметро	-5793
ковдляпереезда	-5794
листапоремонту	-5795
минаниявыцвели	-5796
мнеотвлекаться	-5797
моданнаколёсах	-5798
мудрейшийГесер	-5799
недорогосрочно	-5800
недуматьобэтом	-5801
неизвестностью	-5802
нестарыйбаркас	-5803
нипросветления	-5804
нойнаслаждаюсь	-5805
нопонемножкумы	-5806
ноябнеповторял	-5807
опытобязателен	-5808
плохонасегодня	-5809
подружкойсвоею	-5810
помогитесрочно	-5811
привезёмбыстро	-5812
родушнойстарик	-5813
ромпросыпается	-5814
самокатребенку	-5815
сиделязастолом	-5816
сказалаКвентин	-5817
сквозьстолетия	-5818
совсемкаквосне	-5819
стижениярубежа	-5820
стобойпоселюсь	-5821
странабеззабот	-5822
сухоепомещение	-5823
таксиваэропорт	-5824
тоскучноиглупо	-5825
тояждуВолодьку	-5826
утестировщиком	-5827
ходитпрозрение	-5828
частливыйизнас	-5829
ятсямоиботинки	-5830
яхочуотдохнуть	-5831
ётрассказывать	-5832
▁Большиегорода	-5833
▁Водочкуглушит	-5834
▁Воттакаябатва	-5835
▁Выцветшаятень	-5836
▁Голосомзвонки	-5837
▁Думаланаулицу	-5838
▁Здесьтакдолго	-5839
▁Ивремякаквода	-5840
▁Игодаполетели	-5841
▁Иженавернётся	-5842
▁Икривятсягубы	-5843
▁Ирвутсяпоезда	-5844
▁Исноватретьес	-5845
▁Матушкародная	-5846
▁МоскваСбербан	-5847
▁Мыстоимнакраю	-5848
▁Насуноситрека	-5849
▁Натонкиеслова	-5850
▁Нибереганидна	-5851
▁Новотвызывают	-5852
▁Новсёэтопотом	-5853
▁Ночьютакчасто	-5854
▁Оннесошелсума	-5855
▁Перерослисвои	-5856
▁Позимнемусаду	-5857
▁Попробуйсдела	-5858
▁Раньшеягуляла	-5859
▁Солнечныйдень	-5860
▁Солнцебезжало	-5861
▁Стираяпрошлое	-5862
▁СтранаЛимония	-5863
▁Странныйхолод	-5864
▁СтрануЛимонию	-5865
▁Счастьеданопо	-5866
▁Твояношалегка	-5867
▁Травмачерепно	-5868
▁Умоегоприятел	-5869
▁Холоднаявойна	-5870
▁Хочешьсолнцев	-5871
▁Чувствуюкожей	-5872
▁Шпионилзамной	-5873
▁Япойдунаулицу	-5874
▁Ясмотрюнатебя	-5875
▁Ятакждалатебя	-5876
▁Яусталаужасно	-5877
▁ищуинженерапо	-5878
▁ищумебельщика	-5879
▁куплюматрасбу	-5880
▁куплюпроектор	-5881
▁куплютренажёр	-5882
▁новаястиралка	-5883
▁новыйкухонный	-5884
▁новыйсмартфон	-5885
▁новыйшкафкупе	-5886
▁подарюкотенка	-5887
▁продамдиванбу	-5888
▁работавМоскве	-5889
▁сдампомещение	-5890
▁хочукофелатте	-5891
АнтонГородецкий	-5892
арендапомесячно	-5893
балсяивдругпоки	-5894
вМосквенедорого	-5895
вантоновомвзоре	-5896
взеленомпиджаке	-5897
взорвувсезвезды	-5898
видеонаблюдения	-5899
вкрасавцаАнтона	-5900
впереездесрочно	-5901
всердцепрячется	-5902
вспоминайобомне	-5903
выйгалстукуменя	-5904
гаиповсюдуобман	-5905
гдебынескрылсяя	-5906
держименяфонарь	-5907
дляседыхпирамид	-5908
доставкасегодня	-5909
естьвкарманепач	-5910
етакикидаетвжар	-5911
етыегоненайдешь	-5912
завязаласьдрака	-5913
ивыпьючашкукофе	-5914
каксделатьлучше	-5915
кторапоплаванию	-5916
микроволновкубу	-5917
мояструитсялень	-5918
мясорубкуручную	-5919
немецкуюовчарку	-5920
ниеостановилось	-5921
нонемногиезнают	-5922
палкивкомплекте	-5923
поваравресторан	-5924
пожелаймнеудачи	-5925
поулицевесенний	-5926
пропалибезвести	-5927
прошусогрейменя	-5928
ребристымкрылом	-5929
ремонтустиралок	-5930
рутвзамминистры	-5931
санывсемаршруты	-5932
собныхпомещений	-5933
сомнениясотканы	-5934
стновыжглоглаза	-5935
теранаполставки	-5936
тыспросилауменя	-5937
этобыстропрошло	-5938
▁АВТОМОЙКАРЯДОМ	-5939
▁АркадийУкупник	-5940
▁Большенетместа	-5941
▁Ветхийгородпри	-5942
▁Впиласьзанозой	-5943
▁Впилосьзанозой	-5944
▁Вподоконникмой	-5945
▁ВстрануЛимонию	-5946
▁Вырватьсяможет	-5947
▁Вэтомстробоско	-5948
▁Девкиголосисты	-5949
▁Егопапиныдочки	-5950
▁Икаксэтимсправ	-5951
▁Исоздалэтотмир	-5952
▁Ияпромочилноги	-5953
▁Когдалюдинаули	-5954
▁Мнетруднонести	-5955
▁Накраюводопада	-5956
▁Наулицетемнело	-5957
▁Недосказаноине	-5958
▁Ножницамибылтя	-5959
▁Ноработаважней	-5960
▁Однаонаповсюду	-5961
▁Парнимолодыесв	-5962
▁Поигралистобой	-5963
▁Помоейгладковы	-5964
▁Ругаешьсяматом	-5965
▁Снегвошёлвслед	-5966
▁Толькобыдогнал	-5967
▁Толькоосеньвок	-5968
▁Хватитнамдвоим	-5969
▁Хочешьсладкиха	-5970
▁Чтобыдваблизне	-5971
▁Чтомешаютспать	-5972
▁Явернулсядомой	-5973
▁Яглазазакрываю	-5974
▁Яумруоченьрано	-5975
▁Яшёлксебедомой	-5976
▁ищукомпозитора	-5977
▁ищупекарявкафе	-5978
▁ищуповаравкафе	-5979
▁ищусобакубигля	-5980
▁ищусобакулайку	-5981
▁ищусобакутаксу	-5982
▁ищусобакухаски	-5983
▁ищусобакушпица	-5984
▁квартирастудия	-5985
▁куплюкроссовки	-5986
▁куплюскейтборд	-5987
▁куплюсковороду	-5988
▁новаякофеварка	-5989
▁потерялпаспорт	-5990
▁продамкурткубу	-5991
▁сдамдачуналето	-5992
▁сдамдомнамесяц	-5993
▁сдаюдачуналето	-5994
▁сдаюдачусбаней	-5995
английскогоязыка	-5996
балаинежитсядуша	-5997
берегахдлякрутых	-5998
братьякарамазовы	-5999
ваютпирнавесьмир	-6000
внебезвездазовет	-6001
всеивходызавалит	-6002
всемдорогамитуда	-6003
всёженампришлось	-6004
вытащитьиникогда	-6005
гдавыпускаетжало	-6006
дастсвоюмашинупо	-6007
доставканедорого	-6008
другимивершинами	-6009
зачемпоспешилимы	-6010
икостранюхатьдым	-6011
итедочегоонхорош	-6012
ияопятьидугулять	-6013
каклегкомоивоспо	-6014
куданехочешьидти	-6015
купиваидвухлещей	-6016
ндшафтеменязовёт	-6017
никуниктонепишет	-6018
номнерасплачется	-6019
нонесмогбытьодин	-6020
нужнаняняребенку	-6021
нужноехатьскорее	-6022
онбудетработатьв	-6023
ослепительныймиг	-6024
оттогоотвернётся	-6025
приходилТарнтино	-6026
работаетбанкомат	-6027
разбиваявесельем	-6028
ремонтуноутбуков	-6029
свампирамидружит	-6030
своимяркимсветом	-6031
спрячьтемнеглаза	-6032
сружьёмнаперевес	-6033
толькомигомодним	-6034
укогоестьхороший	-6035
холодильникновый	-6036
хотьихочетсяпить	-6037
цахтолькооднаона	-6038
чикасанглийского	-6039
чтовсененапрасно	-6040
чтопоступилплохо	-6041
чторейснеотложат	-6042
чтотыменябросишь	-6043
▁АСветавиновнаво	-6044
▁Бесшумныйконвой	-6045
▁Билетводинконец	-6046
▁Бываетнедосмеха	-6047
▁Ведьбыловсёунас	-6048
▁Вкоторыхникогда	-6049
▁Вовсехглазахили	-6050
▁Возьмимоесердце	-6051
▁Всегдаподскажет	-6052
▁Второгосентября	-6053
▁Вцепившисьвлучи	-6054
▁Глоткамивоздуха	-6055
▁Задождямиметели	-6056
▁Запотерейпотеря	-6057
▁Звенящегонабегу	-6058
▁Ивотидуяпоулице	-6059
▁Идуяпоулицеодин	-6060
▁Иестьчемплатить	-6061
▁Имудрымсловомон	-6062
▁Когдамнеподноги	-6063
▁Накраюснегопада	-6064
▁Нахолодномветру	-6065
▁Неждименяродная	-6066
▁Несмейегосомной	-6067
▁Новоттеперьтыуш	-6068
▁НозлойЗавулониз	-6069
▁Нотыушлавсвоемо	-6070
▁Ночтобнесбиться	-6071
▁Нутыдаешьвообще	-6072
▁Перелетныептицы	-6073
▁Поаллеямстолицы	-6074
▁Потеряннавсегда	-6075
▁Пришёлкколдунье	-6076
▁Решилипоужинать	-6077
▁Слунойнаповодке	-6078
▁Снебальётсявода	-6079
▁Снебападаетснег	-6080
▁Согромнымтрудом	-6081
▁Такоеневыдумать	-6082
▁Твоядочьимойсын	-6083
▁Тыничегонезнала	-6084
▁Яегопочтидогнал	-6085
▁Янивчемнеоткажу	-6086
▁Япривезлакокаин	-6087
▁Ятропическийлев	-6088
▁ищуарендугаража	-6089
▁ищуврачахирурга	-6090
▁ищугидапоМоскве	-6091
▁ищудомработницу	-6092
▁ищусобакупуделя	-6093
▁ищустудиюуметро	-6094
▁куплювидеокарту	-6095
▁куплюзимниешины	-6096
▁куплюколесазима	-6097
▁куплюкомодбелый	-6098
▁новаякуртказима	-6099
▁новыйдивансерый	-6100
▁отдамдаромкошку	-6101
▁продаммониторбу	-6102
▁сдамгаражсрочно	-6103
▁сдаюофисваренду	-6104
▁сломалсяпылесос	-6105
▁старыйтелевизор	-6106
20	-6107
24	-6108
70	-6109
As	-6110
De	-6111
GO	-6112
KE	-6113
Li	-6114
Mi	-6115
SS	-6116
Sa	-6117
Wi	-6118
Xi	-6119
ab	-6120
an	-6121
ce	-6122
de	-6123
di	-6124
eX	-6125
ed	-6126
gA	-6127
ho	-6128
iP	-6129
ke	-6130
ls	-6131
ms	-6132
ne	-6133
od	-6134
oe	-6135
ol	-6136
om	-6137
ow	-6138
ri	-6139
rn	-6140
ro	-6141
sc	-6142
ta	-6143
te	-6144
un	-6145
xO	-6146
АВ	-6147
АС	-6148
Ад	-6149
Аз	-6150
Ан	-6151
Ая	-6152
Бе	-6153
ВА	-6154
Вг	-6155
Вд	-6156
Вл	-6157
Вс	-6158
Вт	-6159
Вы	-6160
Га	-6161
Ге	-6162
Гл	-6163
ДО	-6164
Де	-6165
Дл	-6166
Др	-6167
Ду	-6168
ЕГ	-6169
Ег	-6170
Ес	-6171
Жу	-6172
Ик	-6173
Ир	-6174
Ия	-6175
КА	-6176
Кт	-6177
Лё	-6178
МО	-6179
Ма	-6180
Мн	-6181
На	-6182
ОЙ	-6183
Ож	-6184
Ок	-6185
Оп	-6186
От	-6187
Пе	-6188
Пл	-6189
Сб	-6190
Св	-6191
Си	-6192
Сл	-6193
Сп	-6194
Ст	-6195
Сэ	-6196
ТО	-6197
Те	-6198
Ти	-6199
ny	-6200
to	-6201
Аб	-6202
РЯ	-6203
Ск	-6204
Тр	-6205
Че	-6206
Чё	-6207
Яв	-6208
Яд	-6209
Яз	-6210
Ят	-6211
аа	-6212
аб	-6213
ад	-6214
ае	-6215
аж	-6216
ак	-6217
ан	-6218
ао	-6219
ап	-6220
ат	-6221
ау	-6222
ах	-6223
аш	-6224
аэ	-6225
аю	-6226
бк	-6227
бл	-6228
бн	-6229
бщ	-6230
вИ	-6231
вМ	-6232
вв	-6233
вг	-6234
вд	-6235
вл	-6236
вм	-6237
вн	-6238
вр	-6239
вч	-6240
вш	-6241
вщ	-6242
вя	-6243
гз	-6244
гк	-6245
дв	-6246
дг	-6247
дд	-6248
дц	-6249
дё	-6250
еМ	-6251
ег	-6252
ее	-6253
ео	-6254
еф	-6255
ех	-6256
ец	-6257
ещ	-6258
жг	-6259
жн	-6260
зк	-6261
зм	-6262
зп	-6263
зр	-6264
зё	-6265
иж	-6266
ии	-6267
ий	-6268
ио	-6269
ип	-6270
ир	-6271
иу	-6272
иц	-6273
йг	-6274
йд	-6275
йе	-6276
йз	-6277
йк	-6278
йл	-6279
йп	-6280
йр	-6281
йх	-6282
йц	-6283
йш	-6284
кв	-6285
кг	-6286
кк	-6287
кп	-6288
кр	-6289
лТ	-6290
лг	-6291
лз	-6292
лп	-6293
лч	-6294
мб	-6295
мж	-6296
мз	-6297
мк	-6298
мн	-6299
ar	-6300
Ае	-6301
Аи	-6302
Би	-6303
Ие	-6304
Ря	-6305
Се	-6306
Яа	-6307
ач	-6308
аё	-6309
дк	-6310
дл	-6311
еж	-6312
жп	-6313
зв	-6314
зд	-6315
зн	-6316
их	-6317
лд	-6318
лж	-6319
лс	-6320
мп	-6321
мт	-6322
нВ	-6323
нб	-6324
нл	-6325
нп	-6326
нр	-6327
оа	-6328
ое	-6329
ож	-6330
оз	-6331
ой	-6332
ол	-6333
оо	-6334
оп	-6335
ор	-6336
оу	-6337
ош	-6338
пн	-6339
пр	-6340
рб	-6341
рж	-6342
рз	-6343
рм	-6344
рп	-6345
рх	-6346
св	-6347
сг	-6348
сл	-6349
см	-6350
сн	-6351
сс	-6352
сш	-6353
тб	-6354
тд	-6355
тж	-6356
тк	-6357
тп	-6358
тс	-6359
тх	-6360
тц	-6361
уВ	-6362
уа	-6363
уб	-6364
ув	-6365
уд	-6366
уж	-6367
уз	-6368
ур	-6369
уф	-6370
ущ	-6371
фа	-6372
фр	-6373
фт	-6374
хк	-6375
хл	-6376
хп	-6377
цд	-6378
цн	-6379
цо	-6380
цц	-6381
чл	-6382
чт	-6383
чш	-6384
шг	-6385
щу	-6386
ыМ	-6387
ыб	-6388
ыв	-6389
ыд	-6390
ыз	-6391
ыи	-6392
ык	-6393
ыл	-6394
ым	-6395
ып	-6396
ых	-6397
ьЛ	-6398
ьб	-6399
TX	-6400
so	-6401
Ам	-6402
Ап	-6403
Ар	-6404
Ач	-6405
Ил	-6406
То	-6407
Ук	-6408
Шп	-6409
аК	-6410
аи	-6411
вц	-6412
гп	-6413
др	-6414
еч	-6415
жс	-6416
зс	-6417
зъ	-6418
кл	-6419
кн	-6420
нт	-6421
нх	-6422
нц	-6423
оё	-6424
рн	-6425
сп	-6426
тн	-6427
уп	-6428
хв	-6429
хт	-6430
ыч	-6431
ьв	-6432
ьг	-6433
ьд	-6434
ьз	-6435
ьи	-6436
ьк	-6437
ьм	-6438
ьн	-6439
ьп	-6440
ьт	-6441
ьш	-6442
ью	-6443
юб	-6444
юв	-6445
юд	-6446
юз	-6447
юй	-6448
юн	-6449
юп	-6450
юу	-6451
юц	-6452
ющ	-6453
юя	-6454
яа	-6455
яв	-6456
яж	-6457
яз	-6458
як	-6459
яп	-6460
ях	-6461
яш	-6462
ящ	-6463
яю	-6464
яя	-6465
ёб	-6466
ёи	-6467
ёл	-6468
ён	-6469
ёш	-6470
ёэ	-6471
▁.	-6472
▁A	-6473
▁I	-6474
▁S	-6475
▁i	-6476
▁к	-6477
▁н	-6478
awe	-6479
bol	-6480
cer	-6481
ili	-6482
Ада	-6483
Гло	-6484
Гру	-6485
Еда	-6486
Ест	-6487
Збу	-6488
Зна	-6489
Ино	-6490
Мен	-6491
Нес	-6492
Она	-6493
Сти	-6494
Тот	-6495
Уку	-6496
Хва	-6497
Что	-6498
Шпи	-6499
OG	-6500
So	-6501
Ат	-6502
Аф	-6503
Бо	-6504
Бу	-6505
Ве	-6506
Зб	-6507
Ты	-6508
аг	-6509
ар	-6510
бя	-6511
вп	-6512
дп	-6513
еЯ	-6514
еп	-6515
еш	-6516
жр	-6517
зл	-6518
зч	-6519
йв	-6520
йи	-6521
кж	-6522
лр	-6523
мл	-6524
нв	-6525
ою	-6526
рг	-6527
тм	-6528
ул	-6529
ъё	-6530
ыу	-6531
ыя	-6532
ьс	-6533
юч	-6534
яи	-6535
яс	-6536
Амо	-6537
Три	-6538
Яза	-6539
Яка	-6540
Яне	-6541
Япо	-6542
Яхо	-6543
авс	-6544
ада	-6545
ает	-6546
ане	-6547
ари	-6548
ату	-6549
бки	-6550
брю	-6551
буй	-6552
быд	-6553
ваз	-6554
вал	-6555
вам	-6556
вед	-6557
виа	-6558
виж	-6559
вир	-6560
вон	-6561
вря	-6562
вхо	-6563
вят	-6564
гет	-6565
гие	-6566
гой	-6567
гоп	-6568
гот	-6569
даж	-6570
дар	-6571
дач	-6572
даё	-6573
деб	-6574
дек	-6575
дис	-6576
дия	-6577
дне	-6578
доп	-6579
дот	-6580
дти	-6581
дуг	-6582
дуо	-6583
дут	-6584
дца	-6585
ебо	-6586
ема	-6587
емж	-6588
емл	-6589
ено	-6590
ент	-6591
епи	-6592
епо	-6593
еро	-6594
ерш	-6595
есу	-6596
етл	-6597
ето	-6598
етс	-6599
ao	-6600
nU	-6601
ys	-6602
Бр	-6603
Бы	-6604
Ва	-6605
Вк	-6606
Са	-6607
Ум	-6608
бв	-6609
вт	-6610
дн	-6611
зг	-6612
зт	-6613
зш	-6614
ие	-6615
кд	-6616
км	-6617
лк	-6618
оя	-6619
хб	-6620
хе	-6621
ци	-6622
чк	-6623
ыж	-6624
ыс	-6625
ьр	-6626
ьч	-6627
юа	-6628
яб	-6629
ял	-6630
▁х	-6631
inU	-6632
ony	-6633
Ива	-6634
Яви	-6635
Яна	-6636
анг	-6637
дае	-6638
етт	-6639
етх	-6640
етш	-6641
жва	-6642
жел	-6643
жуц	-6644
заз	-6645
заи	-6646
зау	-6647
зби	-6648
зго	-6649
зда	-6650
зер	-6651
зко	-6652
идо	-6653
ира	-6654
итв	-6655
итм	-6656
ихо	-6657
йвс	-6658
йне	-6659
йпл	-6660
йто	-6661
кав	-6662
кад	-6663
каи	-6664
као	-6665
кат	-6666
каф	-6667
ках	-6668
кви	-6669
код	-6670
кох	-6671
кст	-6672
кув	-6673
кум	-6674
кут	-6675
куч	-6676
лбо	-6677
лго	-6678
лик	-6679
лич	-6680
лнц	-6681
лод	-6682
лпо	-6683
луш	-6684
лыб	-6685
льн	-6686
ляс	-6687
мва	-6688
мел	-6689
мея	-6690
мис	-6691
мки	-6692
мко	-6693
мла	-6694
мно	-6695
мпо	-6696
мру	-6697
наА	-6698
наВ	-6699
Иг	-6700
Им	-6701
Ин	-6702
жк	-6703
жь	-6704
зе	-6705
зж	-6706
ич	-6707
мр	-6708
нж	-6709
нн	-6710
оэ	-6711
рд	-6712
рс	-6713
ср	-6714
тз	-6715
тт	-6716
уг	-6717
уе	-6718
ун	-6719
уу	-6720
шл	-6721
ыр	-6722
ьё	-6723
юж	-6724
яе	-6725
яй	-6726
яу	-6727
ёж	-6728
ёу	-6729
ако	-6730
дим	-6731
дпо	-6732
едо	-6733
ена	-6734
етк	-6735
зга	-6736
кас	-6737
лми	-6738
наб	-6739
наи	-6740
нат	-6741
ндо	-6742
нез	-6743
неч	-6744
неё	-6745
нир	-6746
нне	-6747
нну	-6748
нны	-6749
ноу	-6750
нош	-6751
нхо	-6752
оем	-6753
оес	-6754
ола	-6755
оли	-6756
оми	-6757
ора	-6758
ору	-6759
ост	-6760
отт	-6761
пак	-6762
паю	-6763
печ	-6764
пле	-6765
пов	-6766
пог	-6767
пои	-6768
пок	-6769
поп	-6770
поу	-6771
поф	-6772
пош	-6773
рал	-6774
рат	-6775
раф	-6776
рвы	-6777
рев	-6778
рем	-6779
рес	-6780
реч	-6781
рин	-6782
рне	-6783
рно	-6784
рня	-6785
рож	-6786
роп	-6787
рос	-6788
рпо	-6789
рра	-6790
ртр	-6791
руи	-6792
рук	-6793
рур	-6794
рщи	-6795
сан	-6796
сен	-6797
сиж	-6798
сну	-6799
1,	-6800
ov	-6801
xe	-6802
Вж	-6803
Вн	-6804
Вп	-6805
Вр	-6806
Вц	-6807
Вэ	-6808
Гр	-6809
Пу	-6810
Ре	-6811
Як	-6812
вк	-6813
гл	-6814
гн	-6815
ию	-6816
йЗ	-6817
йб	-6818
йм	-6819
кт	-6820
рр	-6821
сд	-6822
сч	-6823
уЛ	-6824
ух	-6825
хг	-6826
хж	-6827
хн	-6828
хс	-6829
шк	-6830
ьл	-6831
ьо	-6832
юи	-6833
яд	-6834
LGO	-6835
Яда	-6836
амо	-6837
ато	-6838
вещ	-6839
гро	-6840
двс	-6841
еит	-6842
емд	-6843
ени	-6844
ерг	-6845
еср	-6846
зве	-6847
кап	-6848
лле	-6849
общ	-6850
рие	-6851
сор	-6852
спи	-6853
сра	-6854
стс	-6855
съё	-6856
сяе	-6857
сял	-6858
сям	-6859
сяо	-6860
сяя	-6861
сёт	-6862
тва	-6863
тво	-6864
тда	-6865
тдо	-6866
тии	-6867
тил	-6868
тиц	-6869
тко	-6870
тку	-6871
тми	-6872
топ	-6873
тоу	-6874
тох	-6875
тоэ	-6876
тся	-6877
тыт	-6878
тьд	-6879
тьс	-6880
тят	-6881
убо	-6882
уль	-6883
умо	-6884
упл	-6885
ура	-6886
уст	-6887
ути	-6888
физ	-6889
хау	-6890
хое	-6891
хож	-6892
хра	-6893
хто	-6894
цеб	-6895
цео	-6896
цес	-6897
цея	-6898
цки	-6899
Вч	-6900
Гд	-6901
Го	-6902
Да	-6903
Ем	-6904
Ещ	-6905
Жд	-6906
Жи	-6907
Пр	-6908
аф	-6909
ащ	-6910
гм	-6911
дз	-6912
дш	-6913
еА	-6914
еи	-6915
еу	-6916
ея	-6917
жж	-6918
мм	-6919
нм	-6920
ои	-6921
пп	-6922
тш	-6923
цк	-6924
шр	-6925
ыц	-6926
эт	-6927
яч	-6928
Ине	-6929
аво	-6930
ври	-6931
гое	-6932
доз	-6933
дёт	-6934
иот	-6935
лан	-6936
лня	-6937
наг	-6938
нан	-6939
неи	-6940
оре	-6941
пра	-6942
риг	-6943
уве	-6944
цку	-6945
чах	-6946
чет	-6947
чка	-6948
чку	-6949
чна	-6950
чну	-6951
чук	-6952
шим	-6953
шко	-6954
щек	-6955
щит	-6956
ыва	-6957
ыву	-6958
ыга	-6959
ыеб	-6960
ыза	-6961
ыйп	-6962
ыйу	-6963
ыки	-6964
ыко	-6965
ыку	-6966
ыло	-6967
ыст	-6968
ыта	-6969
ыши	-6970
ьба	-6971
ьбу	-6972
ьза	-6973
ьку	-6974
ьли	-6975
ьмо	-6976
ьпе	-6977
ьпо	-6978
юво	-6979
юне	-6980
юоб	-6981
юпи	-6982
юст	-6983
юсь	-6984
ютп	-6985
яба	-6986
яве	-6987
яла	-6988
яло	-6989
ялю	-6990
яна	-6991
яне	-6992
япо	-6993
яре	-6994
яча	-6995
ёне	-6996
ёта	-6997
▁Аб	-6998
▁Ад	-6999
mo	-7000
sh	-7001
Зв	-7002
Зд	-7003
Зл	-7004
Зн	-7005
Иб	-7006
Ив	-7007
Ид	-7008
Иж	-7009
Из	-7010
Ис	-7011
Чт	-7012
Чу	-7013
Яи	-7014
Яш	-7015
аБ	-7016
гс	-7017
зб	-7018
зя	-7019
иХ	-7020
йу	-7021
кх	-7022
лА	-7023
мд	-7024
нГ	-7025
нС	-7026
нз	-7027
сэ	-7028
тч	-7029
уЗ	-7030
уй	-7031
уя	-7032
шн	-7033
юк	-7034
Ина	-7035
Сда	-7036
ево	-7037
есо	-7038
зза	-7039
лис	-7040
лра	-7041
нае	-7042
оку	-7043
ома	-7044
сда	-7045
сяс	-7046
тне	-7047
шьо	-7048
ьхо	-7049
яко	-7050
ято	-7051
▁Ан	-7052
▁Ва	-7053
▁Вг	-7054
▁Вж	-7055
▁Га	-7056
▁Ие	-7057
▁Ир	-7058
▁Об	-7059
▁Ст	-7060
▁Яу	-7061
▁ну	-7062
▁ра	-7063
Япро	-7064
банк	-7065
бари	-7066
била	-7067
бкой	-7068
буде	-7069
быст	-7070
вало	-7071
ванС	-7072
ване	-7073
вара	-7074
вери	-7075
вети	-7076
виже	-7077
витв	-7078
вомо	-7079
воно	-7080
вста	-7081
втра	-7082
втур	-7083
вувс	-7084
выли	-7085
выхо	-7086
гдам	-7087
геро	-7088
гики	-7089
гкий	-7090
гова	-7091
гонг	-7092
гоне	-7093
гоот	-7094
гуло	-7095
даем	-7096
дала	-7097
дале	-7098
дамс	-7099
Sh	-7100
ox	-7101
Ип	-7102
Ит	-7103
Ка	-7104
Кв	-7105
Кн	-7106
Ко	-7107
Кр	-7108
Ме	-7109
Ми	-7110
Мо	-7111
Об	-7112
дт	-7113
жв	-7114
иш	-7115
йД	-7116
йч	-7117
лв	-7118
лм	-7119
лт	-7120
лэ	-7121
рё	-7122
сб	-7123
сю	-7124
тё	-7125
уи	-7126
хр	-7127
ыг	-7128
ын	-7129
ыт	-7130
ыш	-7131
ьж	-7132
ьу	-7133
LED	-7134
Ста	-7135
Тво	-7136
выд	-7137
дры	-7138
ека	-7139
ерк	-7140
зат	-7141
ивс	-7142
итё	-7143
йко	-7144
нид	-7145
оки	-7146
опл	-7147
пун	-7148
юта	-7149
валь	-7150
дапо	-7151
дара	-7152
дари	-7153
даро	-7154
дель	-7155
дент	-7156
дина	-7157
диот	-7158
дить	-7159
дком	-7160
дляз	-7161
дляи	-7162
дляк	-7163
дний	-7164
доле	-7165
домо	-7166
допа	-7167
допл	-7168
доче	-7169
дрей	-7170
дска	-7171
дугу	-7172
дули	-7173
дучу	-7174
дущи	-7175
дывс	-7176
дылю	-7177
дьбы	-7178
дька	-7179
дьма	-7180
ебли	-7181
ейго	-7182
екто	-7183
емен	-7184
енку	-7185
енна	-7186
енни	-7187
еной	-7188
еняв	-7189
епри	-7190
епро	-7191
ерви	-7192
есем	-7193
есен	-7194
есно	-7195
есну	-7196
есра	-7197
еста	-7198
етбы	-7199
Мы	-7200
Мя	-7201
Не	-7202
Ни	-7203
Од	-7204
Он	-7205
Оч	-7206
Па	-7207
Ро	-7208
Хв	-7209
аА	-7210
аЛ	-7211
аС	-7212
бз	-7213
вб	-7214
вж	-7215
вэ	-7216
зР	-7217
йГ	-7218
йж	-7219
йт	-7220
кб	-7221
кч	-7222
мг	-7223
мч	-7224
мь	-7225
нс	-7226
нш	-7227
оц	-7228
тН	-7229
тл	-7230
хд	-7231
чо	-7232
шо	-7233
юо	-7234
юр	-7235
юс	-7236
ёв	-7237
вза	-7238
дуб	-7239
дук	-7240
зде	-7241
льб	-7242
наэ	-7243
ова	-7244
пое	-7245
уно	-7246
хбе	-7247
ьст	-7248
юри	-7249
гоко	-7250
грам	-7251
етво	-7252
етдо	-7253
етит	-7254
етпо	-7255
етра	-7256
етро	-7257
етто	-7258
ждуВ	-7259
жеви	-7260
жеон	-7261
жска	-7262
зави	-7263
зала	-7264
зани	-7265
здес	-7266
знач	-7267
зова	-7268
зско	-7269
ивая	-7270
исмо	-7271
итаэ	-7272
ищук	-7273
ищул	-7274
ищуф	-7275
ищух	-7276
ищуш	-7277
ищуэ	-7278
йдуи	-7279
кади	-7280
кажд	-7281
какм	-7282
кано	-7283
капо	-7284
каяв	-7285
кимя	-7286
кнов	-7287
кном	-7288
коди	-7289
кока	-7290
комо	-7291
крос	-7292
куда	-7293
куиз	-7294
куко	-7295
куне	-7296
куни	-7297
купо	-7298
куро	-7299
!.	-7300
5.	-7301
Ho	-7302
Ал	-7303
По	-7304
Ру	-7305
Сд	-7306
Сн	-7307
Со	-7308
Су	-7309
Сч	-7310
Съ	-7311
Тв	-7312
Ув	-7313
Ут	-7314
бм	-7315
бэ	-7316
вх	-7317
гб	-7318
гв	-7319
зз	-7320
кз	-7321
лл	-7322
мА	-7323
пс	-7324
пт	-7325
уН	-7326
уо	-7327
ща	-7328
ъе	-7329
ыо	-7330
ьх	-7331
ьэ	-7332
эк	-7333
яф	-7334
ёс	-7335
▁и	-7336
ака	-7337
ваС	-7338
вар	-7339
гон	-7340
етН	-7341
етб	-7342
лса	-7343
оей	-7344
пап	-7345
пно	-7346
рач	-7347
рек	-7348
тан	-7349
уто	-7350
ыто	-7351
яни	-7352
▁Бо	-7353
вовс	-7354
годо	-7355
гупо	-7356
елью	-7357
ерит	-7358
етба	-7359
йдля	-7360
кара	-7361
кумы	-7362
лана	-7363
лахс	-7364
лезы	-7365
лета	-7366
лиже	-7367
лист	-7368
лнас	-7369
лнов	-7370
лнце	-7371
лова	-7372
ловы	-7373
лода	-7374
лоды	-7375
лока	-7376
лоть	-7377
льве	-7378
льне	-7379
льёт	-7380
ляла	-7381
ляну	-7382
ляот	-7383
март	-7384
масо	-7385
мбез	-7386
мвая	-7387
мдру	-7388
мест	-7389
метр	-7390
меёт	-7391
мибы	-7392
миво	-7393
мидо	-7394
миру	-7395
мист	-7396
мишь	-7397
мнас	-7398
мнед	-7399
10	-7400
Me	-7401
Ед	-7402
Хр	-7403
Чь	-7404
Яг	-7405
Яе	-7406
Ял	-7407
Ям	-7408
Ян	-7409
Яп	-7410
Яс	-7411
Яу	-7412
Ях	-7413
аВ	-7414
ац	-7415
дж	-7416
дм	-7417
еа	-7418
йф	-7419
оМ	-7420
пч	-7421
сЕ	-7422
сф	-7423
уц	-7424
ъя	-7425
юх	-7426
▁а	-7427
▁д	-7428
Кне	-7429
Тра	-7430
Яст	-7431
Ято	-7432
бви	-7433
веу	-7434
вко	-7435
гад	-7436
геб	-7437
еет	-7438
ены	-7439
жко	-7440
ияе	-7441
лож	-7442
ляо	-7443
мив	-7444
нон	-7445
оту	-7446
рай	-7447
риш	-7448
рут	-7449
спл	-7450
шру	-7451
ятт	-7452
ветш	-7453
всле	-7454
емно	-7455
еньд	-7456
каве	-7457
мойз	-7458
моно	-7459
мпро	-7460
мсто	-7461
мяку	-7462
наку	-7463
наме	-7464
нару	-7465
наст	-7466
нато	-7467
нгли	-7468
неко	-7469
немо	-7470
нени	-7471
непо	-7472
нера	-7473
нибу	-7474
нийг	-7475
никэ	-7476
нить	-7477
ноже	-7478
нозо	-7479
нону	-7480
ноот	-7481
нора	-7482
ност	-7483
ночь	-7484
ныдо	-7485
ныеб	-7486
ныеп	-7487
онхо	-7488
осдо	-7489
осмо	-7490
отда	-7491
отдо	-7492
отма	-7493
отни	-7494
отто	-7495
пает	-7496
педа	-7497
перё	-7498
пива	-7499
Gi	-7500
Pl	-7501
Xb	-7502
Ya	-7503
ah	-7504
at	-7505
ay	-7506
bs	-7507
en	-7508
id	-7509
im	-7510
ma	-7511
sl	-7512
xS	-7513
yt	-7514
дб	-7515
дч	-7516
нф	-7517
ощ	-7518
рщ	-7519
уэ	-7520
хм	-7521
шп	-7522
ьщ	-7523
эл	-7524
эр	-7525
юг	-7526
▁п	-7527
Opp	-7528
Здо	-7529
Нет	-7530
ата	-7531
быо	-7532
ваэ	-7533
еве	-7534
иза	-7535
кос	-7536
лещ	-7537
лст	-7538
мыу	-7539
наБ	-7540
нст	-7541
нюю	-7542
опо	-7543
рди	-7544
реМ	-7545
стл	-7546
уот	-7547
ыда	-7548
ыйв	-7549
ыра	-7550
ьво	-7551
ёвз	-7552
анов	-7553
внов	-7554
дино	-7555
ерел	-7556
лизы	-7557
льта	-7558
мпри	-7559
нают	-7560
нест	-7561
обма	-7562
онбу	-7563
пила	-7564
пили	-7565
плач	-7566
плюа	-7567
плюг	-7568
плюз	-7569
плюм	-7570
плюп	-7571
плюц	-7572
поет	-7573
поме	-7574
поне	-7575
попо	-7576
прог	-7577
проз	-7578
проп	-7579
прос	-7580
пыто	-7581
пьют	-7582
пяты	-7583
рада	-7584
разв	-7585
рака	-7586
рало	-7587
рану	-7588
раню	-7589
раса	-7590
расо	-7591
рать	-7592
рдля	-7593
реба	-7594
рево	-7595
рего	-7596
реди	-7597
рела	-7598
речу	-7599
Bo	-7600
In	-7601
LE	-7602
To	-7603
VC	-7604
ac	-7605
as	-7606
eg	-7607
ev	-7608
hi	-7609
il	-7610
ip	-7611
ll	-7612
nk	-7613
si	-7614
ua	-7615
us	-7616
we	-7617
фд	-7618
щн	-7619
юл	-7620
юю	-7621
sus	-7622
Сто	-7623
ало	-7624
дид	-7625
етж	-7626
ипа	-7627
кал	-7628
куб	-7629
маи	-7630
мди	-7631
моф	-7632
нап	-7633
нар	-7634
нья	-7635
ока	-7636
поМ	-7637
тех	-7638
тик	-7639
тод	-7640
ыйа	-7641
ьем	-7642
ysta	-7643
Ятак	-7644
буко	-7645
дому	-7646
елав	-7647
енту	-7648
ерну	-7649
какя	-7650
кожи	-7651
коми	-7652
лавс	-7653
напл	-7654
ород	-7655
пода	-7656
пото	-7657
разъ	-7658
риве	-7659
риги	-7660
рили	-7661
ришь	-7662
рови	-7663
рово	-7664
рома	-7665
ромо	-7666
рона	-7667
ропо	-7668
ртку	-7669
рупо	-7670
ршру	-7671
рыга	-7672
ряча	-7673
себе	-7674
седу	-7675
сени	-7676
сивы	-7677
сидо	-7678
сипе	-7679
снов	-7680
сове	-7681
совс	-7682
спод	-7683
спре	-7684
ство	-7685
стех	-7686
стит	-7687
стка	-7688
стре	-7689
суно	-7690
сьза	-7691
сявс	-7692
сяго	-7693
сядо	-7694
сяду	-7695
сяем	-7696
сямо	-7697
сяне	-7698
такг	-7699
27	-7700
50	-7701
JB	-7702
SI	-7703
Se	-7704
TC	-7705
ba	-7706
ie	-7707
ix	-7708
pp	-7709
sR	-7710
sS	-7711
tl	-7712
жё	-7713
йа	-7714
кэ	-7715
мш	-7716
тф	-7717
фб	-7718
фк	-7719
шв	-7720
юш	-7721
▁о	-7722
▁р	-7723
▁т	-7724
Вно	-7725
Ска	-7726
ано	-7727
аро	-7728
еде	-7729
елр	-7730
зан	-7731
итс	-7732
йно	-7733
йст	-7734
льп	-7735
меё	-7736
ноб	-7737
ноз	-7738
нот	-7739
оно	-7740
рак	-7741
рап	-7742
роу	-7743
тбу	-7744
тни	-7745
усо	-7746
шла	-7747
ыйг	-7748
ыхо	-7749
ьда	-7750
ьсо	-7751
всер	-7752
дает	-7753
ерба	-7754
кеко	-7755
лоза	-7756
нако	-7757
наро	-7758
огра	-7759
рали	-7760
таку	-7761
тере	-7762
тибы	-7763
тидо	-7764
тква	-7765
тков	-7766
тком	-7767
тмир	-7768
това	-7769
томи	-7770
тона	-7771
тоот	-7772
топе	-7773
топо	-7774
торе	-7775
тота	-7776
тото	-7777
тоха	-7778
тран	-7779
трит	-7780
тухо	-7781
тьво	-7782
тьда	-7783
тьта	-7784
ужно	-7785
укак	-7786
уска	-7787
усто	-7788
утво	-7789
утда	-7790
утни	-7791
хани	-7792
хваж	-7793
хгла	-7794
ходу	-7795
хоть	-7796
цуна	-7797
част	-7798
чемо	-7799
Вст	-7800
Иль	-7801
Ира	-7802
Мно	-7803
Ята	-7804
аст	-7805
вис	-7806
гно	-7807
ест	-7808
етч	-7809
ист	-7810
кно	-7811
лаб	-7812
лна	-7813
лно	-7814
льв	-7815
нно	-7816
нож	-7817
нои	-7818
ноо	-7819
ноп	-7820
нор	-7821
нюя	-7822
нян	-7823
поб	-7824
стк	-7825
тки	-7826
тно	-7827
туш	-7828
уми	-7829
хно	-7830
шно	-7831
ыть	-7832
ьно	-7833
юно	-7834
яно	-7835
веня	-7836
дижи	-7837
дишь	-7838
дляс	-7839
емны	-7840
инов	-7841
ител	-7842
итро	-7843
ищуп	-7844
йфон	-7845
лане	-7846
лива	-7847
нито	-7848
поду	-7849
слоо	-7850
треб	-7851
чить	-7852
чуку	-7853
чуна	-7854
чьми	-7855
шевы	-7856
шкуб	-7857
шьна	-7858
щежи	-7859
щени	-7860
ыепо	-7861
ыйво	-7862
ыйку	-7863
ыйми	-7864
ыйро	-7865
ырва	-7866
ькак	-7867
ьпод	-7868
юите	-7869
о	-7870
а	-7871
е	-7872
т	-7873
н	-7874
и	-7875
р	-7876
▁	-7877
с	-7878
у	-7879
л	-7880
к	-7881
в	-7882
д	-7883
м	-7884
п	-7885
,	-7886
я	-7887
ы	-7888
ь	-7889
б	-7890
г	-7891
й	-7892
ю	-7893
з	-7894
ч	-7895
ж	-7896
ш	-7897
щ	-7898
х	-7899
.	-7900
ц	-7901
Н	-7902
В	-7903
ё	-7904
-	-7905
И	-7906
ф	-7907
П	-7908
С	-7909
Я	-7910
o	-7911
М	-7912
i	-7913
a	-7914
n	-7915
А	-7916
s	-7917
Т	-7918
!	-7919
e	-7920
О	-7921
э	-7922
К	-7923
S	-7924
З	-7925
Х	-7926
P	-7927
h	-7928
L	-7929
l	-7930
m	-7931
t	-7932
'	-7933
u	-7934
Г	-7935
Р	-7936
?	-7937
Б	-7938
Д	-7939
Ч	-7940
1	-7941
Л	-7942
G	-7943
g	-7944
Е	-7945
5	-7946
A	-7947
d	-7948
p	-7949
r	-7950
2	-7951
:	-7952
I	-7953
X	-7954
y	-7955
У	-7956
O	-7957
«	-7958
»	-7959
–	-7960
0	-7961
4	-7962
D	-7963
H	-7964
R	-7965
b	-7966
c	-7967
k	-7968
Ж	-7969
3	-7970
7	-7971
B	-7972
C	-7973
M	-7974
T	-7975
ъ	-7976
E	-7977
v	-7978
w	-7979
x	-7980
—	-7981
6	-7982
J	-7983
N	-7984
+	-7985
8	-7986
F	-7987
K	-7988
U	-7989
V	-7990
W	-7991
Y	-7992
Й	-7993
Ш	-7994
Э	-7995
’	-7996
